unsigned char ecg_model_int8_tflite[] = {
  0x1c, 0x00, 0x00, 0x00, 0x54, 0x46, 0x4c, 0x33, 0x14, 0x00, 0x20, 0x00,
  0x1c, 0x00, 0x18, 0x00, 0x14, 0x00, 0x10, 0x00, 0x0c, 0x00, 0x00, 0x00,
  0x08, 0x00, 0x04, 0x00, 0x14, 0x00, 0x00, 0x00, 0x1c, 0x00, 0x00, 0x00,
  0x8c, 0x00, 0x00, 0x00, 0xe4, 0x00, 0x00, 0x00, 0x30, 0x07, 0x00, 0x00,
  0x40, 0x07, 0x00, 0x00, 0xf8, 0x13, 0x00, 0x00, 0x03, 0x00, 0x00, 0x00,
  0x01, 0x00, 0x00, 0x00, 0x04, 0x00, 0x00, 0x00, 0x9e, 0xf7, 0xff, 0xff,
  0x0c, 0x00, 0x00, 0x00, 0x1c, 0x00, 0x00, 0x00, 0x3c, 0x00, 0x00, 0x00,
  0x0f, 0x00, 0x00, 0x00, 0x73, 0x65, 0x72, 0x76, 0x69, 0x6e, 0x67, 0x5f,
  0x64, 0x65, 0x66, 0x61, 0x75, 0x6c, 0x74, 0x00, 0x01, 0x00, 0x00, 0x00,
  0x04, 0x00, 0x00, 0x00, 0x90, 0xff, 0xff, 0xff, 0x11, 0x00, 0x00, 0x00,
  0x04, 0x00, 0x00, 0x00, 0x08, 0x00, 0x00, 0x00, 0x6f, 0x75, 0x74, 0x70,
  0x75, 0x74, 0x5f, 0x30, 0x00, 0x00, 0x00, 0x00, 0x01, 0x00, 0x00, 0x00,
  0x04, 0x00, 0x00, 0x00, 0xa6, 0xf7, 0xff, 0xff, 0x04, 0x00, 0x00, 0x00,
  0x0f, 0x00, 0x00, 0x00, 0x6b, 0x65, 0x72, 0x61, 0x73, 0x5f, 0x74, 0x65,
  0x6e, 0x73, 0x6f, 0x72, 0x5f, 0x31, 0x30, 0x00, 0x02, 0x00, 0x00, 0x00,
  0x34, 0x00, 0x00, 0x00, 0x04, 0x00, 0x00, 0x00, 0xdc, 0xff, 0xff, 0xff,
  0x14, 0x00, 0x00, 0x00, 0x04, 0x00, 0x00, 0x00, 0x13, 0x00, 0x00, 0x00,
  0x43, 0x4f, 0x4e, 0x56, 0x45, 0x52, 0x53, 0x49, 0x4f, 0x4e, 0x5f, 0x4d,
  0x45, 0x54, 0x41, 0x44, 0x41, 0x54, 0x41, 0x00, 0x08, 0x00, 0x0c, 0x00,
  0x08, 0x00, 0x04, 0x00, 0x08, 0x00, 0x00, 0x00, 0x13, 0x00, 0x00, 0x00,
  0x04, 0x00, 0x00, 0x00, 0x13, 0x00, 0x00, 0x00, 0x6d, 0x69, 0x6e, 0x5f,
  0x72, 0x75, 0x6e, 0x74, 0x69, 0x6d, 0x65, 0x5f, 0x76, 0x65, 0x72, 0x73,
  0x69, 0x6f, 0x6e, 0x00, 0x15, 0x00, 0x00, 0x00, 0x48, 0x06, 0x00, 0x00,
  0x40, 0x06, 0x00, 0x00, 0x2c, 0x06, 0x00, 0x00, 0x18, 0x06, 0x00, 0x00,
  0x04, 0x06, 0x00, 0x00, 0xe4, 0x05, 0x00, 0x00, 0xb4, 0x05, 0x00, 0x00,
  0x84, 0x05, 0x00, 0x00, 0xf4, 0x04, 0x00, 0x00, 0xa4, 0x04, 0x00, 0x00,
  0xd4, 0x00, 0x00, 0x00, 0xcc, 0x00, 0x00, 0x00, 0xc4, 0x00, 0x00, 0x00,
  0xbc, 0x00, 0x00, 0x00, 0xb4, 0x00, 0x00, 0x00, 0xac, 0x00, 0x00, 0x00,
  0xa4, 0x00, 0x00, 0x00, 0x9c, 0x00, 0x00, 0x00, 0x94, 0x00, 0x00, 0x00,
  0x74, 0x00, 0x00, 0x00, 0x04, 0x00, 0x00, 0x00, 0x76, 0xf8, 0xff, 0xff,
  0x04, 0x00, 0x00, 0x00, 0x60, 0x00, 0x00, 0x00, 0x0c, 0x00, 0x00, 0x00,
  0x08, 0x00, 0x0e, 0x00, 0x08, 0x00, 0x04, 0x00, 0x08, 0x00, 0x00, 0x00,
  0x10, 0x00, 0x00, 0x00, 0x28, 0x00, 0x00, 0x00, 0x00, 0x00, 0x06, 0x00,
  0x08, 0x00, 0x04, 0x00, 0x06, 0x00, 0x00, 0x00, 0x04, 0x00, 0x00, 0x00,
  0x01, 0x00, 0x00, 0x00, 0xeb, 0x03, 0x00, 0x00, 0x0c, 0x00, 0x18, 0x00,
  0x14, 0x00, 0x10, 0x00, 0x0c, 0x00, 0x04, 0x00, 0x0c, 0x00, 0x00, 0x00,
  0x80, 0x68, 0x34, 0xf7, 0x5d, 0xe2, 0x4d, 0x3b, 0x02, 0x00, 0x00, 0x00,
  0x02, 0x00, 0x00, 0x00, 0x04, 0x00, 0x00, 0x00, 0x06, 0x00, 0x00, 0x00,
  0x32, 0x2e, 0x32, 0x30, 0x2e, 0x30, 0x00, 0x00, 0xe2, 0xf8, 0xff, 0xff,
  0x04, 0x00, 0x00, 0x00, 0x10, 0x00, 0x00, 0x00, 0x31, 0x2e, 0x31, 0x34,
  0x2e, 0x30, 0x00, 0x00, 0x00, 0x00, 0x00, 0x00, 0x00, 0x00, 0x00, 0x00,
  0x94, 0xee, 0xff, 0xff, 0x98, 0xee, 0xff, 0xff, 0x9c, 0xee, 0xff, 0xff,
  0xa0, 0xee, 0xff, 0xff, 0xa4, 0xee, 0xff, 0xff, 0xa8, 0xee, 0xff, 0xff,
  0xac, 0xee, 0xff, 0xff, 0xb0, 0xee, 0xff, 0xff, 0x1e, 0xf9, 0xff, 0xff,
  0x04, 0x00, 0x00, 0x00, 0xc0, 0x03, 0x00, 0x00, 0x29, 0x6b, 0xe4, 0x18,
  0x64, 0xe8, 0x14, 0x66, 0xe9, 0x1b, 0x67, 0x18, 0x1f, 0x6d, 0xd0, 0x17,
  0x6a, 0x16, 0x11, 0x6d, 0x52, 0x1b, 0x76, 0x09, 0x14, 0x65, 0x05, 0x10,
  0x65, 0x5f, 0x30, 0x7a, 0xf9, 0x12, 0x5b, 0x0b, 0x12, 0x62, 0xb8, 0x0f,
  0x61, 0xe2, 0x02, 0x5a, 0xe4, 0x19, 0x66, 0x8e, 0x18, 0x6d, 0x45, 0x2d,
  0x7f, 0x52, 0x13, 0x66, 0x0b, 0x1b, 0x60, 0x8f, 0xe4, 0xe6, 0x32, 0x20,
  0x31, 0xd3, 0x63, 0xf5, 0xed, 0xaa, 0x24, 0xb2, 0x7f, 0xe4, 0xb4, 0xcd,
  0xcc, 0xe4, 0xdf, 0x25, 0xce, 0x6c, 0xba, 0xfa, 0xdd, 0x58, 0x2b, 0xfe,
  0x09, 0xc3, 0x55, 0xd8, 0xec, 0x9e, 0x28, 0x32, 0x28, 0xfd, 0xbc, 0x32,
  0xca, 0xcc, 0xa4, 0x17, 0xed, 0x76, 0xe9, 0x27, 0xf1, 0x32, 0xd9, 0x62,
  0x13, 0xc1, 0x14, 0x20, 0x22, 0x23, 0xf8, 0x1d, 0x27, 0x30, 0x22, 0x5e,
  0x01, 0x29, 0xec, 0x3c, 0x08, 0x5d, 0xe9, 0xf0, 0x05, 0x5a, 0xe0, 0x3b,
  0xdb, 0x06, 0x1e, 0x40, 0xef, 0x23, 0xe4, 0x0c, 0x10, 0x40, 0x2a, 0x2f,
  0xf1, 0xf8, 0x0b, 0x24, 0xdd, 0x38, 0x1f, 0xea, 0x2c, 0x26, 0x04, 0x0b,
  0x0a, 0x1c, 0x48, 0x10, 0x1b, 0xe2, 0x15, 0x2b, 0x7f, 0x20, 0xf3, 0xda,
  0x27, 0x35, 0x63, 0x15, 0xe3, 0xf6, 0x0b, 0xe5, 0x30, 0x71, 0x44, 0x2c,
  0x6a, 0x12, 0x25, 0x72, 0x1a, 0x36, 0x74, 0x3d, 0x1b, 0x66, 0x87, 0x13,
  0x76, 0x39, 0x0b, 0x64, 0xb7, 0x4b, 0x7f, 0xf8, 0x09, 0x58, 0x1e, 0x20,
  0x66, 0x40, 0x3f, 0x7f, 0x9f, 0x34, 0x7a, 0xe9, 0xfa, 0x49, 0x30, 0x07,
  0x5f, 0x8c, 0x23, 0x74, 0xde, 0x38, 0x7d, 0x05, 0x2b, 0x7e, 0x22, 0x15,
  0x73, 0xf0, 0x14, 0x52, 0xfc, 0x11, 0x6e, 0xfa, 0x53, 0x39, 0xca, 0x3a,
  0x1a, 0x2b, 0x4b, 0x33, 0xe0, 0x76, 0x4d, 0x00, 0x67, 0x3a, 0xe9, 0x75,
  0x5c, 0xe6, 0x3c, 0x1d, 0x25, 0x53, 0x44, 0xf7, 0x55, 0x40, 0xe6, 0x50,
  0x49, 0x21, 0x74, 0x66, 0x2d, 0x5d, 0x3b, 0x98, 0x50, 0x44, 0xe4, 0x72,
  0x62, 0x37, 0x51, 0x2f, 0x02, 0x57, 0x2f, 0x06, 0x5f, 0x41, 0x2c, 0x52,
  0x30, 0xa2, 0x7f, 0x3c, 0x28, 0x77, 0x5d, 0xbf, 0xbc, 0x24, 0xbb, 0x09,
  0xcc, 0xde, 0xa5, 0x1d, 0xc1, 0xd6, 0xa3, 0xb7, 0xbc, 0x1a, 0xc4, 0xfc,
  0x94, 0xeb, 0xcc, 0x3b, 0xd7, 0xe2, 0x9e, 0xf7, 0xac, 0x29, 0xbe, 0xec,
  0xbf, 0xbf, 0x81, 0xf4, 0xed, 0xca, 0xd4, 0xeb, 0xa9, 0x09, 0xe1, 0xc8,
  0xc0, 0xb1, 0xcb, 0x08, 0xc6, 0xc1, 0xcf, 0xfb, 0xb8, 0xde, 0xc6, 0xf1,
  0xdd, 0xbf, 0xcb, 0x15, 0x16, 0xb4, 0xce, 0xf5, 0x87, 0xa6, 0x30, 0xef,
  0xb2, 0x47, 0xc1, 0xe8, 0x5b, 0x91, 0xa8, 0x55, 0xda, 0xef, 0xe7, 0xbb,
  0x9e, 0xf2, 0x88, 0xc0, 0x70, 0xc5, 0xb5, 0xe9, 0x9f, 0xd1, 0x53, 0xb4,
  0xe4, 0xe8, 0xcd, 0xa0, 0x45, 0xb7, 0xf5, 0x5a, 0xc0, 0xe2, 0x47, 0xa4,
  0x8d, 0x0d, 0xa3, 0xd4, 0x3c, 0xa2, 0xba, 0x5f, 0xc7, 0xc3, 0xec, 0x81,
  0x9b, 0x34, 0xfb, 0xce, 0x06, 0xb1, 0xd7, 0x14, 0x3d, 0x10, 0xda, 0x0b,
  0xc8, 0x13, 0x4a, 0x2e, 0xfd, 0x34, 0x1e, 0x09, 0x3b, 0xfb, 0x08, 0x2f,
  0xc8, 0x0a, 0x33, 0x17, 0xf9, 0xcc, 0x3a, 0xd6, 0xcc, 0x57, 0xd5, 0xad,
  0x32, 0xd9, 0x81, 0x15, 0xf3, 0xc9, 0x48, 0xe4, 0xd9, 0x36, 0x19, 0x03,
  0x69, 0xe0, 0xf2, 0x42, 0xc9, 0x02, 0x15, 0xdb, 0x0b, 0xb1, 0xe3, 0x38,
  0xa5, 0x0d, 0x48, 0xde, 0x1a, 0x6f, 0x03, 0xee, 0xb7, 0xa7, 0xe8, 0xaa,
  0x9e, 0xdc, 0xd5, 0xbb, 0x0e, 0xbc, 0xb9, 0x0f, 0xb5, 0x85, 0x0f, 0xbe,
  0xbf, 0x09, 0xcd, 0xad, 0x1a, 0xb1, 0xd2, 0x20, 0xc8, 0xae, 0xeb, 0xb5,
  0xcc, 0xd1, 0xbc, 0xb4, 0xed, 0xde, 0xea, 0x18, 0xd7, 0xbc, 0xfc, 0xae,
  0xb7, 0x20, 0xd3, 0xba, 0x09, 0xb7, 0xda, 0x1b, 0xce, 0x81, 0x28, 0xa8,
  0xcb, 0x08, 0xca, 0x8e, 0xd0, 0xb1, 0xb5, 0x19, 0x1b, 0xee, 0xfc, 0xd2,
  0x1f, 0xe0, 0x5d, 0xfe, 0x08, 0xde, 0x27, 0xdf, 0x17, 0xe5, 0xea, 0xfa,
  0x3c, 0xfb, 0x46, 0xd9, 0xcf, 0xcc, 0x3c, 0x05, 0x45, 0xe7, 0xf9, 0xf6,
  0x10, 0x13, 0xe3, 0x01, 0xfc, 0x39, 0x23, 0xe4, 0x1a, 0x23, 0x15, 0xfd,
  0x11, 0x1a, 0x1c, 0x14, 0x19, 0x29, 0x02, 0x07, 0xa8, 0x01, 0xfc, 0x7f,
  0x22, 0xfd, 0xb9, 0x12, 0xe9, 0x58, 0x27, 0xe1, 0x81, 0x92, 0x29, 0x9f,
  0xbd, 0x54, 0x8e, 0x8d, 0x3f, 0xa8, 0x9b, 0xcb, 0x9c, 0x8c, 0x45, 0xc0,
  0xd7, 0x39, 0xac, 0xa0, 0x5a, 0x8f, 0xbb, 0x3e, 0xbd, 0xcb, 0x15, 0x90,
  0xa2, 0x55, 0x9f, 0xda, 0xd7, 0x8d, 0x87, 0x56, 0xbe, 0xcc, 0x2a, 0xa4,
  0xed, 0x48, 0x9b, 0xa4, 0x3e, 0xa4, 0xb9, 0xf7, 0x9f, 0x98, 0x2d, 0xaf,
  0xa7, 0x2b, 0x94, 0xb6, 0xff, 0x97, 0xa8, 0x56, 0xe6, 0x18, 0x01, 0x98,
  0x98, 0x4a, 0xc0, 0x08, 0x5f, 0xd4, 0xed, 0xf0, 0xd8, 0x15, 0x4f, 0xb0,
  0x9d, 0x25, 0xab, 0xe4, 0x18, 0xf0, 0x16, 0xfa, 0xb2, 0x7f, 0x5e, 0xb1,
  0x3d, 0x11, 0xbf, 0x03, 0x4b, 0xb2, 0x45, 0x21, 0xc4, 0x19, 0x17, 0xe4,
  0x36, 0x03, 0xd0, 0x1c, 0xf0, 0xbc, 0x15, 0x72, 0xde, 0xbf, 0x72, 0xdb,
  0x03, 0x15, 0xf5, 0xd6, 0x0a, 0xcb, 0xfe, 0x66, 0x31, 0xfc, 0xe9, 0x1b,
  0xed, 0x9a, 0x2f, 0x04, 0x9f, 0x1f, 0x24, 0xec, 0x08, 0xeb, 0xcf, 0x29,
  0x09, 0x9e, 0x45, 0x34, 0x9a, 0x4e, 0x2b, 0x0a, 0x3d, 0x2f, 0xe9, 0x3e,
  0x2d, 0xfc, 0x6f, 0x1b, 0xc4, 0x55, 0x42, 0xed, 0x2e, 0x49, 0x03, 0x7f,
  0x21, 0xc9, 0x30, 0x13, 0xb6, 0x38, 0x37, 0xd8, 0x47, 0x25, 0x8f, 0x0c,
  0x12, 0xf2, 0x51, 0x1c, 0xce, 0x00, 0xf0, 0x03, 0xc8, 0xc4, 0xf6, 0xb7,
  0xae, 0x22, 0xb3, 0xb2, 0xf5, 0xb9, 0xb6, 0x01, 0xbf, 0xb0, 0x11, 0xcd,
  0xc3, 0x0c, 0xab, 0x98, 0xf2, 0xbe, 0xad, 0x2d, 0xae, 0x95, 0xe1, 0xa8,
  0x81, 0x01, 0xb1, 0x92, 0x30, 0xc6, 0xb8, 0xf5, 0xcc, 0xc0, 0xef, 0xcb,
  0xae, 0xff, 0xd1, 0xc0, 0x39, 0xb1, 0xa7, 0x05, 0xb5, 0xc1, 0xf7, 0xad,
  0xb7, 0xf8, 0xc5, 0xc5, 0x3a, 0xbf, 0xc0, 0x00, 0x94, 0x93, 0x05, 0xc1,
  0xa6, 0xfb, 0xbd, 0xc1, 0x3d, 0xc3, 0x87, 0xdf, 0xab, 0xab, 0xf7, 0xb8,
  0x90, 0x3a, 0xb5, 0xbe, 0xff, 0xbc, 0x9e, 0x15, 0x9b, 0xc7, 0xfe, 0xc5,
  0xb2, 0x13, 0xb0, 0xcd, 0xf3, 0xaf, 0x81, 0xf4, 0x9d, 0xb9, 0x2a, 0xe6,
  0xda, 0xf1, 0xae, 0xba, 0x06, 0xb8, 0x8e, 0xf0, 0xb7, 0xb2, 0xdf, 0xb3,
  0x84, 0xf0, 0xc0, 0xb0, 0xec, 0xab, 0x87, 0x3c, 0x01, 0x5d, 0x65, 0x00,
  0x62, 0xcb, 0x21, 0x6c, 0x5d, 0xe5, 0x52, 0xae, 0x16, 0x67, 0xb3, 0xff,
  0x58, 0x1a, 0x12, 0x7b, 0x22, 0xe8, 0x4c, 0xc2, 0x21, 0x6e, 0xf7, 0x2a,
  0x7c, 0x6c, 0xed, 0x4f, 0xe6, 0xfd, 0x68, 0xc3, 0x30, 0x77, 0xcf, 0xef,
  0x59, 0xb2, 0x15, 0x63, 0x1f, 0x0c, 0x72, 0x9c, 0x2b, 0x7f, 0x5c, 0x23,
  0x77, 0x43, 0x1d, 0x72, 0x41, 0xff, 0x53, 0xd9, 0xea, 0xfc, 0xff, 0xff,
  0x04, 0x00, 0x00, 0x00, 0x40, 0x00, 0x00, 0x00, 0xb2, 0x7d, 0xff, 0xff,
  0x9f, 0xfd, 0xff, 0xff, 0xfa, 0xdf, 0xff, 0xff, 0x36, 0x85, 0xff, 0xff,
  0x14, 0x9a, 0xff, 0xff, 0xb7, 0x00, 0x00, 0x00, 0x6a, 0x29, 0x00, 0x00,
  0xeb, 0xe7, 0xff, 0xff, 0x99, 0x07, 0x00, 0x00, 0x89, 0xf5, 0xff, 0xff,
  0x2f, 0x22, 0x00, 0x00, 0xed, 0xf5, 0xff, 0xff, 0x37, 0xf0, 0xff, 0xff,
  0x6f, 0x0b, 0x00, 0x00, 0x43, 0x08, 0x00, 0x00, 0x80, 0x70, 0xff, 0xff,
  0x36, 0xfd, 0xff, 0xff, 0x04, 0x00, 0x00, 0x00, 0x80, 0x00, 0x00, 0x00,
  0x9b, 0x0e, 0xc1, 0xa7, 0x81, 0x23, 0xfd, 0x1c, 0x35, 0xed, 0x04, 0x00,
  0x0c, 0x2c, 0x2b, 0xd1, 0x81, 0x0c, 0xfb, 0x91, 0x36, 0x06, 0x05, 0x16,
  0x39, 0xe3, 0x07, 0x02, 0x19, 0x4b, 0x4e, 0xa4, 0x01, 0xff, 0x01, 0x01,
  0x0f, 0x09, 0x81, 0xfc, 0x01, 0x03, 0x93, 0x00, 0xff, 0x00, 0x00, 0x03,
  0x0e, 0x0d, 0x3a, 0x01, 0x7f, 0x2f, 0xfd, 0xc4, 0x58, 0x76, 0x0d, 0x03,
  0xf7, 0x46, 0x57, 0x2b, 0xc6, 0x18, 0x0c, 0xd1, 0x24, 0x01, 0xac, 0x1b,
  0x08, 0x11, 0x9d, 0x81, 0x0e, 0x03, 0x07, 0xb6, 0x8a, 0x36, 0x12, 0x81,
  0x62, 0xfb, 0x04, 0x8b, 0x10, 0x1d, 0x01, 0x05, 0x28, 0x0c, 0x14, 0x9f,
  0xf7, 0x10, 0xf9, 0xfe, 0x81, 0x25, 0x21, 0xec, 0x40, 0x08, 0x22, 0x2d,
  0x03, 0x4d, 0x52, 0xf0, 0x7f, 0xf1, 0xe6, 0x79, 0x87, 0x26, 0x0a, 0x1d,
  0x1d, 0xf3, 0x0c, 0x13, 0xe8, 0x1d, 0x15, 0x6f, 0xc2, 0xfd, 0xff, 0xff,
  0x04, 0x00, 0x00, 0x00, 0x20, 0x00, 0x00, 0x00, 0x6c, 0x01, 0x00, 0x00,
  0xe1, 0x07, 0x00, 0x00, 0xe0, 0xfd, 0xff, 0xff, 0x95, 0x03, 0x00, 0x00,
  0x92, 0x02, 0x00, 0x00, 0x42, 0xfd, 0xff, 0xff, 0xf2, 0x02, 0x00, 0x00,
  0x49, 0x00, 0x00, 0x00, 0xee, 0xfd, 0xff, 0xff, 0x04, 0x00, 0x00, 0x00,
  0x20, 0x00, 0x00, 0x00, 0x3e, 0xfd, 0x7f, 0xc6, 0x3a, 0xac, 0x2c, 0xbc,
  0xf9, 0xd8, 0x81, 0x1d, 0xab, 0x36, 0x14, 0x00, 0xe3, 0x81, 0x4d, 0xfe,
  0xd7, 0xd7, 0xde, 0x45, 0x81, 0xee, 0x00, 0xea, 0x32, 0x2c, 0xc9, 0xcd,
  0x1a, 0xfe, 0xff, 0xff, 0x04, 0x00, 0x00, 0x00, 0x10, 0x00, 0x00, 0x00,
  0x9e, 0xff, 0xff, 0xff, 0x7e, 0x00, 0x00, 0x00, 0x1e, 0x00, 0x00, 0x00,
  0xca, 0x00, 0x00, 0x00, 0x36, 0xfe, 0xff, 0xff, 0x04, 0x00, 0x00, 0x00,
  0x04, 0x00, 0x00, 0x00, 0x3c, 0x00, 0x00, 0x00, 0x46, 0xfe, 0xff, 0xff,
  0x04, 0x00, 0x00, 0x00, 0x04, 0x00, 0x00, 0x00, 0x01, 0x00, 0x00, 0x00,
  0x56, 0xfe, 0xff, 0xff, 0x04, 0x00, 0x00, 0x00, 0x04, 0x00, 0x00, 0x00,
  0x00, 0x00, 0x00, 0x00, 0xfc, 0xf3, 0xff, 0xff, 0x00, 0xf4, 0xff, 0xff,
  0x0f, 0x00, 0x00, 0x00, 0x4d, 0x4c, 0x49, 0x52, 0x20, 0x43, 0x6f, 0x6e,
  0x76, 0x65, 0x72, 0x74, 0x65, 0x64, 0x2e, 0x00, 0x01, 0x00, 0x00, 0x00,
  0x14, 0x00, 0x00, 0x00, 0x00, 0x00, 0x0e, 0x00, 0x18, 0x00, 0x14, 0x00,
  0x10, 0x00, 0x0c, 0x00, 0x08, 0x00, 0x04, 0x00, 0x0e, 0x00, 0x00, 0x00,
  0x14, 0x00, 0x00, 0x00, 0x1c, 0x00, 0x00, 0x00, 0x1c, 0x02, 0x00, 0x00,
  0x20, 0x02, 0x00, 0x00, 0x24, 0x02, 0x00, 0x00, 0x04, 0x00, 0x00, 0x00,
  0x6d, 0x61, 0x69, 0x6e, 0x00, 0x00, 0x00, 0x00, 0x08, 0x00, 0x00, 0x00,
  0xcc, 0x01, 0x00, 0x00, 0x6c, 0x01, 0x00, 0x00, 0x1c, 0x01, 0x00, 0x00,
  0xf4, 0x00, 0x00, 0x00, 0xac, 0x00, 0x00, 0x00, 0x60, 0x00, 0x00, 0x00,
  0x28, 0x00, 0x00, 0x00, 0x04, 0x00, 0x00, 0x00, 0x2a, 0xff, 0xff, 0xff,
  0x0c, 0x00, 0x00, 0x00, 0x10, 0x00, 0x00, 0x00, 0x05, 0x00, 0x00, 0x00,
  0x01, 0x00, 0x00, 0x00, 0x11, 0x00, 0x00, 0x00, 0x01, 0x00, 0x00, 0x00,
  0x10, 0x00, 0x00, 0x00, 0x92, 0xff, 0xff, 0xff, 0x14, 0x00, 0x00, 0x00,
  0x00, 0x00, 0x00, 0x08, 0x10, 0x00, 0x00, 0x00, 0x14, 0x00, 0x00, 0x00,
  0x04, 0x00, 0x00, 0x00, 0xb0, 0xf4, 0xff, 0xff, 0x01, 0x00, 0x00, 0x00,
  0x10, 0x00, 0x00, 0x00, 0x03, 0x00, 0x00, 0x00, 0x0f, 0x00, 0x00, 0x00,
  0x05, 0x00, 0x00, 0x00, 0x04, 0x00, 0x00, 0x00, 0xc6, 0xff, 0xff, 0xff,
  0x14, 0x00, 0x00, 0x00, 0x00, 0x00, 0x00, 0x08, 0x14, 0x00, 0x00, 0x00,
  0x18, 0x00, 0x00, 0x00, 0x04, 0x00, 0x00, 0x00, 0xaa, 0xfe, 0xff, 0xff,
  0x00, 0x00, 0x00, 0x01, 0x01, 0x00, 0x00, 0x00, 0x0f, 0x00, 0x00, 0x00,
  0x03, 0x00, 0x00, 0x00, 0x0e, 0x00, 0x00, 0x00, 0x07, 0x00, 0x00, 0x00,
  0x06, 0x00, 0x00, 0x00, 0x00, 0x00, 0x0e, 0x00, 0x18, 0x00, 0x14, 0x00,
  0x10, 0x00, 0x0c, 0x00, 0x0b, 0x00, 0x04, 0x00, 0x0e, 0x00, 0x00, 0x00,
  0x14, 0x00, 0x00, 0x00, 0x00, 0x00, 0x00, 0x08, 0x14, 0x00, 0x00, 0x00,
  0x18, 0x00, 0x00, 0x00, 0x04, 0x00, 0x00, 0x00, 0xf2, 0xfe, 0xff, 0xff,
  0x00, 0x00, 0x00, 0x01, 0x01, 0x00, 0x00, 0x00, 0x0e, 0x00, 0x00, 0x00,
  0x03, 0x00, 0x00, 0x00, 0x0d, 0x00, 0x00, 0x00, 0x09, 0x00, 0x00, 0x00,
  0x08, 0x00, 0x00, 0x00, 0x00, 0x00, 0x0a, 0x00, 0x10, 0x00, 0x0c, 0x00,
  0x08, 0x00, 0x04, 0x00, 0x0a, 0x00, 0x00, 0x00, 0x0c, 0x00, 0x00, 0x00,
  0x10, 0x00, 0x00, 0x00, 0x03, 0x00, 0x00, 0x00, 0x01, 0x00, 0x00, 0x00,
  0x0d, 0x00, 0x00, 0x00, 0x02, 0x00, 0x00, 0x00, 0x00, 0x00, 0x00, 0x00,
  0x0c, 0x00, 0x00, 0x00, 0xc2, 0xff, 0xff, 0xff, 0x1c, 0x00, 0x00, 0x00,
  0x00, 0x00, 0x00, 0x3b, 0x1c, 0x00, 0x00, 0x00, 0x20, 0x00, 0x00, 0x00,
  0x02, 0x00, 0x00, 0x00, 0x00, 0x00, 0x06, 0x00, 0x08, 0x00, 0x04, 0x00,
  0x06, 0x00, 0x00, 0x00, 0x02, 0x00, 0x00, 0x00, 0x01, 0x00, 0x00, 0x00,
  0x0c, 0x00, 0x00, 0x00, 0x02, 0x00, 0x00, 0x00, 0x0b, 0x00, 0x00, 0x00,
  0x03, 0x00, 0x00, 0x00, 0x00, 0x00, 0x0e, 0x00, 0x1a, 0x00, 0x14, 0x00,
  0x10, 0x00, 0x0c, 0x00, 0x0b, 0x00, 0x04, 0x00, 0x0e, 0x00, 0x00, 0x00,
  0x24, 0x00, 0x00, 0x00, 0x00, 0x00, 0x00, 0x20, 0x24, 0x00, 0x00, 0x00,
  0x28, 0x00, 0x00, 0x00, 0x01, 0x00, 0x00, 0x00, 0x00, 0x00, 0x0e, 0x00,
  0x08, 0x00, 0x00, 0x00, 0x00, 0x00, 0x00, 0x00, 0x00, 0x00, 0x04, 0x00,
  0x0e, 0x00, 0x00, 0x00, 0x01, 0x00, 0x00, 0x00, 0x01, 0x00, 0x00, 0x00,
  0x0b, 0x00, 0x00, 0x00, 0x04, 0x00, 0x00, 0x00, 0x0a, 0x00, 0x00, 0x00,
  0x01, 0x00, 0x00, 0x00, 0x02, 0x00, 0x00, 0x00, 0x02, 0x00, 0x00, 0x00,
  0x00, 0x00, 0x0e, 0x00, 0x16, 0x00, 0x00, 0x00, 0x10, 0x00, 0x0c, 0x00,
  0x0b, 0x00, 0x04, 0x00, 0x0e, 0x00, 0x00, 0x00, 0x18, 0x00, 0x00, 0x00,
  0x00, 0x00, 0x00, 0x37, 0x18, 0x00, 0x00, 0x00, 0x1c, 0x00, 0x00, 0x00,
  0x00, 0x00, 0x06, 0x00, 0x08, 0x00, 0x07, 0x00, 0x06, 0x00, 0x00, 0x00,
  0x00, 0x00, 0x00, 0x02, 0x01, 0x00, 0x00, 0x00, 0x0a, 0x00, 0x00, 0x00,
  0x01, 0x00, 0x00, 0x00, 0x00, 0x00, 0x00, 0x00, 0x01, 0x00, 0x00, 0x00,
  0x11, 0x00, 0x00, 0x00, 0x01, 0x00, 0x00, 0x00, 0x00, 0x00, 0x00, 0x00,
  0x12, 0x00, 0x00, 0x00, 0xd0, 0x09, 0x00, 0x00, 0x74, 0x09, 0x00, 0x00,
  0x1c, 0x09, 0x00, 0x00, 0xe0, 0x08, 0x00, 0x00, 0x58, 0x08, 0x00, 0x00,
  0xcc, 0x07, 0x00, 0x00, 0x18, 0x07, 0x00, 0x00, 0x5c, 0x06, 0x00, 0x00,
  0x48, 0x05, 0x00, 0x00, 0x2c, 0x04, 0x00, 0x00, 0xdc, 0x03, 0x00, 0x00,
  0x88, 0x03, 0x00, 0x00, 0x30, 0x03, 0x00, 0x00, 0xac, 0x02, 0x00, 0x00,
  0xe8, 0x01, 0x00, 0x00, 0x24, 0x01, 0x00, 0x00, 0x80, 0x00, 0x00, 0x00,
  0x04, 0x00, 0x00, 0x00, 0x8e, 0xf6, 0xff, 0xff, 0x00, 0x00, 0x00, 0x01,
  0x18, 0x00, 0x00, 0x00, 0x20, 0x00, 0x00, 0x00, 0x3c, 0x00, 0x00, 0x00,
  0x12, 0x00, 0x00, 0x00, 0x00, 0x00, 0x00, 0x09, 0x50, 0x00, 0x00, 0x00,
  0x02, 0x00, 0x00, 0x00, 0xff, 0xff, 0xff, 0xff, 0x04, 0x00, 0x00, 0x00,
  0x74, 0xf6, 0xff, 0xff, 0x08, 0x00, 0x00, 0x00, 0x10, 0x00, 0x00, 0x00,
  0x01, 0x00, 0x00, 0x00, 0x80, 0xff, 0xff, 0xff, 0xff, 0xff, 0xff, 0xff,
  0x01, 0x00, 0x00, 0x00, 0x00, 0x00, 0x80, 0x3b, 0x1b, 0x00, 0x00, 0x00,
  0x53, 0x74, 0x61, 0x74, 0x65, 0x66, 0x75, 0x6c, 0x50, 0x61, 0x72, 0x74,
  0x69, 0x74, 0x69, 0x6f, 0x6e, 0x65, 0x64, 0x43, 0x61, 0x6c, 0x6c, 0x5f,
  0x31, 0x3a, 0x30, 0x00, 0x02, 0x00, 0x00, 0x00, 0x01, 0x00, 0x00, 0x00,
  0x04, 0x00, 0x00, 0x00, 0x06, 0xf7, 0xff, 0xff, 0x00, 0x00, 0x00, 0x01,
  0x18, 0x00, 0x00, 0x00, 0x20, 0x00, 0x00, 0x00, 0x3c, 0x00, 0x00, 0x00,
  0x11, 0x00, 0x00, 0x00, 0x00, 0x00, 0x00, 0x09, 0x78, 0x00, 0x00, 0x00,
  0x02, 0x00, 0x00, 0x00, 0xff, 0xff, 0xff, 0xff, 0x04, 0x00, 0x00, 0x00,
  0xec, 0xf6, 0xff, 0xff, 0x08, 0x00, 0x00, 0x00, 0x10, 0x00, 0x00, 0x00,
  0x01, 0x00, 0x00, 0x00, 0xfb, 0xff, 0xff, 0xff, 0xff, 0xff, 0xff, 0xff,
  0x01, 0x00, 0x00, 0x00, 0xee, 0x33, 0xf1, 0x3e, 0x40, 0x00, 0x00, 0x00,
  0x73, 0x65, 0x71, 0x75, 0x65, 0x6e, 0x74, 0x69, 0x61, 0x6c, 0x5f, 0x32,
  0x5f, 0x31, 0x2f, 0x64, 0x65, 0x6e, 0x73, 0x65, 0x5f, 0x36, 0x5f, 0x31,
  0x2f, 0x4d, 0x61, 0x74, 0x4d, 0x75, 0x6c, 0x3b, 0x73, 0x65, 0x71, 0x75,
  0x65, 0x6e, 0x74, 0x69, 0x61, 0x6c, 0x5f, 0x32, 0x5f, 0x31, 0x2f, 0x64,
  0x65, 0x6e, 0x73, 0x65, 0x5f, 0x36, 0x5f, 0x31, 0x2f, 0x42, 0x69, 0x61,
  0x73, 0x41, 0x64, 0x64, 0x00, 0x00, 0x00, 0x00, 0x02, 0x00, 0x00, 0x00,
  0x01, 0x00, 0x00, 0x00, 0x04, 0x00, 0x00, 0x00, 0xa6, 0xf7, 0xff, 0xff,
  0x00, 0x00, 0x00, 0x01, 0x18, 0x00, 0x00, 0x00, 0x20, 0x00, 0x00, 0x00,
  0x40, 0x00, 0x00, 0x00, 0x10, 0x00, 0x00, 0x00, 0x00, 0x00, 0x00, 0x09,
  0x98, 0x00, 0x00, 0x00, 0x02, 0x00, 0x00, 0x00, 0xff, 0xff, 0xff, 0xff,
  0x08, 0x00, 0x00, 0x00, 0x8c, 0xf7, 0xff, 0xff, 0x08, 0x00, 0x00, 0x00,
  0x14, 0x00, 0x00, 0x00, 0x01, 0x00, 0x00, 0x00, 0x80, 0xff, 0xff, 0xff,
  0xff, 0xff, 0xff, 0xff, 0x00, 0x00, 0x00, 0x00, 0x01, 0x00, 0x00, 0x00,
  0x9b, 0x05, 0x5a, 0x3e, 0x5e, 0x00, 0x00, 0x00, 0x73, 0x65, 0x71, 0x75,
  0x65, 0x6e, 0x74, 0x69, 0x61, 0x6c, 0x5f, 0x32, 0x5f, 0x31, 0x2f, 0x64,
  0x65, 0x6e, 0x73, 0x65, 0x5f, 0x35, 0x5f, 0x31, 0x2f, 0x4d, 0x61, 0x74,
  0x4d, 0x75, 0x6c, 0x3b, 0x73, 0x65, 0x71, 0x75, 0x65, 0x6e, 0x74, 0x69,
  0x61, 0x6c, 0x5f, 0x32, 0x5f, 0x31, 0x2f, 0x64, 0x65, 0x6e, 0x73, 0x65,
  0x5f, 0x35, 0x5f, 0x31, 0x2f, 0x52, 0x65, 0x6c, 0x75, 0x3b, 0x73, 0x65,
  0x71, 0x75, 0x65, 0x6e, 0x74, 0x69, 0x61, 0x6c, 0x5f, 0x32, 0x5f, 0x31,
  0x2f, 0x64, 0x65, 0x6e, 0x73, 0x65, 0x5f, 0x35, 0x5f, 0x31, 0x2f, 0x42,
  0x69, 0x61, 0x73, 0x41, 0x64, 0x64, 0x00, 0x00, 0x02, 0x00, 0x00, 0x00,
  0x01, 0x00, 0x00, 0x00, 0x08, 0x00, 0x00, 0x00, 0x66, 0xf8, 0xff, 0xff,
  0x00, 0x00, 0x00, 0x01, 0x18, 0x00, 0x00, 0x00, 0x20, 0x00, 0x00, 0x00,
  0x40, 0x00, 0x00, 0x00, 0x0f, 0x00, 0x00, 0x00, 0x00, 0x00, 0x00, 0x09,
  0x98, 0x00, 0x00, 0x00, 0x02, 0x00, 0x00, 0x00, 0xff, 0xff, 0xff, 0xff,
  0x10, 0x00, 0x00, 0x00, 0x4c, 0xf8, 0xff, 0xff, 0x08, 0x00, 0x00, 0x00,
  0x14, 0x00, 0x00, 0x00, 0x01, 0x00, 0x00, 0x00, 0x80, 0xff, 0xff, 0xff,
  0xff, 0xff, 0xff, 0xff, 0x00, 0x00, 0x00, 0x00, 0x01, 0x00, 0x00, 0x00,
  0x83, 0xd5, 0x43, 0x3d, 0x5e, 0x00, 0x00, 0x00, 0x73, 0x65, 0x71, 0x75,
  0x65, 0x6e, 0x74, 0x69, 0x61, 0x6c, 0x5f, 0x32, 0x5f, 0x31, 0x2f, 0x64,
  0x65, 0x6e, 0x73, 0x65, 0x5f, 0x34, 0x5f, 0x31, 0x2f, 0x4d, 0x61, 0x74,
  0x4d, 0x75, 0x6c, 0x3b, 0x73, 0x65, 0x71, 0x75, 0x65, 0x6e, 0x74, 0x69,
  0x61, 0x6c, 0x5f, 0x32, 0x5f, 0x31, 0x2f, 0x64, 0x65, 0x6e, 0x73, 0x65,
  0x5f, 0x34, 0x5f, 0x31, 0x2f, 0x52, 0x65, 0x6c, 0x75, 0x3b, 0x73, 0x65,
  0x71, 0x75, 0x65, 0x6e, 0x74, 0x69, 0x61, 0x6c, 0x5f, 0x32, 0x5f, 0x31,
  0x2f, 0x64, 0x65, 0x6e, 0x73, 0x65, 0x5f, 0x34, 0x5f, 0x31, 0x2f, 0x42,
  0x69, 0x61, 0x73, 0x41, 0x64, 0x64, 0x00, 0x00, 0x02, 0x00, 0x00, 0x00,
  0x01, 0x00, 0x00, 0x00, 0x10, 0x00, 0x00, 0x00, 0x26, 0xf9, 0xff, 0xff,
  0x00, 0x00, 0x00, 0x01, 0x18, 0x00, 0x00, 0x00, 0x20, 0x00, 0x00, 0x00,
  0x3c, 0x00, 0x00, 0x00, 0x0e, 0x00, 0x00, 0x00, 0x00, 0x00, 0x00, 0x09,
  0x58, 0x00, 0x00, 0x00, 0x02, 0x00, 0x00, 0x00, 0xff, 0xff, 0xff, 0xff,
  0x3c, 0x00, 0x00, 0x00, 0x0c, 0xf9, 0xff, 0xff, 0x08, 0x00, 0x00, 0x00,
  0x10, 0x00, 0x00, 0x00, 0x01, 0x00, 0x00, 0x00, 0xca, 0xff, 0xff, 0xff,
  0xff, 0xff, 0xff, 0xff, 0x01, 0x00, 0x00, 0x00, 0x17, 0x33, 0x00, 0x3d,
  0x20, 0x00, 0x00, 0x00, 0x73, 0x65, 0x71, 0x75, 0x65, 0x6e, 0x74, 0x69,
  0x61, 0x6c, 0x5f, 0x32, 0x5f, 0x31, 0x2f, 0x66, 0x6c, 0x61, 0x74, 0x74,
  0x65, 0x6e, 0x5f, 0x31, 0x2f, 0x52, 0x65, 0x73, 0x68, 0x61, 0x70, 0x65,
  0x00, 0x00, 0x00, 0x00, 0x02, 0x00, 0x00, 0x00, 0x01, 0x00, 0x00, 0x00,
  0x3c, 0x00, 0x00, 0x00, 0xfe, 0xf9, 0xff, 0xff, 0x00, 0x00, 0x00, 0x01,
  0x14, 0x00, 0x00, 0x00, 0x14, 0x00, 0x00, 0x00, 0x0d, 0x00, 0x00, 0x00,
  0x00, 0x00, 0x00, 0x02, 0x34, 0x00, 0x00, 0x00, 0xe8, 0xf9, 0xff, 0xff,
  0x26, 0x00, 0x00, 0x00, 0x73, 0x65, 0x71, 0x75, 0x65, 0x6e, 0x74, 0x69,
  0x61, 0x6c, 0x5f, 0x32, 0x5f, 0x31, 0x2f, 0x66, 0x6c, 0x61, 0x74, 0x74,
  0x65, 0x6e, 0x5f, 0x31, 0x2f, 0x52, 0x65, 0x73, 0x68, 0x61, 0x70, 0x65,
  0x2f, 0x73, 0x68, 0x61, 0x70, 0x65, 0x00, 0x00, 0x01, 0x00, 0x00, 0x00,
  0x02, 0x00, 0x00, 0x00, 0x52, 0xfa, 0xff, 0xff, 0x00, 0x00, 0x00, 0x01,
  0x14, 0x00, 0x00, 0x00, 0x14, 0x00, 0x00, 0x00, 0x0c, 0x00, 0x00, 0x00,
  0x00, 0x00, 0x00, 0x02, 0x34, 0x00, 0x00, 0x00, 0x3c, 0xfa, 0xff, 0xff,
  0x26, 0x00, 0x00, 0x00, 0x73, 0x65, 0x71, 0x75, 0x65, 0x6e, 0x74, 0x69,
  0x61, 0x6c, 0x5f, 0x32, 0x5f, 0x31, 0x2f, 0x66, 0x6c, 0x61, 0x74, 0x74,
  0x65, 0x6e, 0x5f, 0x31, 0x2f, 0x73, 0x74, 0x72, 0x69, 0x64, 0x65, 0x64,
  0x5f, 0x73, 0x6c, 0x69, 0x63, 0x65, 0x00, 0x00, 0x00, 0x00, 0x00, 0x00,
  0xa2, 0xfa, 0xff, 0xff, 0x00, 0x00, 0x00, 0x01, 0x14, 0x00, 0x00, 0x00,
  0x14, 0x00, 0x00, 0x00, 0x0b, 0x00, 0x00, 0x00, 0x00, 0x00, 0x00, 0x02,
  0x2c, 0x00, 0x00, 0x00, 0x8c, 0xfa, 0xff, 0xff, 0x1e, 0x00, 0x00, 0x00,
  0x73, 0x65, 0x71, 0x75, 0x65, 0x6e, 0x74, 0x69, 0x61, 0x6c, 0x5f, 0x32,
  0x5f, 0x31, 0x2f, 0x66, 0x6c, 0x61, 0x74, 0x74, 0x65, 0x6e, 0x5f, 0x31,
  0x2f, 0x53, 0x68, 0x61, 0x70, 0x65, 0x00, 0x00, 0x01, 0x00, 0x00, 0x00,
  0x03, 0x00, 0x00, 0x00, 0xee, 0xfa, 0xff, 0xff, 0x00, 0x00, 0x00, 0x01,
  0x14, 0x00, 0x00, 0x00, 0xe8, 0x00, 0x00, 0x00, 0x0a, 0x00, 0x00, 0x00,
  0x00, 0x00, 0x00, 0x09, 0xf4, 0x00, 0x00, 0x00, 0x6c, 0xfa, 0xff, 0xff,
  0x08, 0x00, 0x00, 0x00, 0x8c, 0x00, 0x00, 0x00, 0x10, 0x00, 0x00, 0x00,
  0x00, 0x00, 0x00, 0x00, 0x00, 0x00, 0x00, 0x00, 0x00, 0x00, 0x00, 0x00,
  0x00, 0x00, 0x00, 0x00, 0x00, 0x00, 0x00, 0x00, 0x00, 0x00, 0x00, 0x00,
  0x00, 0x00, 0x00, 0x00, 0x00, 0x00, 0x00, 0x00, 0x00, 0x00, 0x00, 0x00,
  0x00, 0x00, 0x00, 0x00, 0x00, 0x00, 0x00, 0x00, 0x00, 0x00, 0x00, 0x00,
  0x00, 0x00, 0x00, 0x00, 0x00, 0x00, 0x00, 0x00, 0x00, 0x00, 0x00, 0x00,
  0x00, 0x00, 0x00, 0x00, 0x00, 0x00, 0x00, 0x00, 0x00, 0x00, 0x00, 0x00,
  0x00, 0x00, 0x00, 0x00, 0x00, 0x00, 0x00, 0x00, 0x00, 0x00, 0x00, 0x00,
  0x00, 0x00, 0x00, 0x00, 0x00, 0x00, 0x00, 0x00, 0x00, 0x00, 0x00, 0x00,
  0x00, 0x00, 0x00, 0x00, 0x00, 0x00, 0x00, 0x00, 0x00, 0x00, 0x00, 0x00,
  0x00, 0x00, 0x00, 0x00, 0x00, 0x00, 0x00, 0x00, 0x00, 0x00, 0x00, 0x00,
  0x00, 0x00, 0x00, 0x00, 0x00, 0x00, 0x00, 0x00, 0x00, 0x00, 0x00, 0x00,
  0x10, 0x00, 0x00, 0x00, 0x36, 0xbf, 0x1f, 0x3b, 0xa6, 0x4a, 0x86, 0x3b,
  0x50, 0x45, 0xc6, 0x3b, 0x9b, 0x62, 0x31, 0x3b, 0x82, 0xa5, 0x34, 0x3b,
  0x81, 0x50, 0xa9, 0x3b, 0xe4, 0xa7, 0x77, 0x3b, 0xf6, 0xa4, 0xba, 0x3b,
  0x02, 0x2f, 0xb4, 0x3b, 0xc2, 0x92, 0xe6, 0x3b, 0x0e, 0xbe, 0x73, 0x3b,
  0x82, 0x2d, 0x83, 0x3b, 0x3c, 0xcd, 0x83, 0x3b, 0x8e, 0x7d, 0xc4, 0x3b,
  0x98, 0x74, 0xa3, 0x3b, 0xed, 0x74, 0x00, 0x3b, 0x12, 0x00, 0x00, 0x00,
  0x74, 0x66, 0x6c, 0x2e, 0x70, 0x73, 0x65, 0x75, 0x64, 0x6f, 0x5f, 0x71,
  0x63, 0x6f, 0x6e, 0x73, 0x74, 0x35, 0x00, 0x00, 0x02, 0x00, 0x00, 0x00,
  0x10, 0x00, 0x00, 0x00, 0x3c, 0x00, 0x00, 0x00, 0x06, 0xfc, 0xff, 0xff,
  0x00, 0x00, 0x00, 0x01, 0x14, 0x00, 0x00, 0x00, 0xe4, 0x00, 0x00, 0x00,
  0x09, 0x00, 0x00, 0x00, 0x00, 0x00, 0x00, 0x02, 0xf0, 0x00, 0x00, 0x00,
  0x84, 0xfb, 0xff, 0xff, 0x08, 0x00, 0x00, 0x00, 0x88, 0x00, 0x00, 0x00,
  0x10, 0x00, 0x00, 0x00, 0x00, 0x00, 0x00, 0x00, 0x00, 0x00, 0x00, 0x00,
  0x00, 0x00, 0x00, 0x00, 0x00, 0x00, 0x00, 0x00, 0x00, 0x00, 0x00, 0x00,
  0x00, 0x00, 0x00, 0x00, 0x00, 0x00, 0x00, 0x00, 0x00, 0x00, 0x00, 0x00,
  0x00, 0x00, 0x00, 0x00, 0x00, 0x00, 0x00, 0x00, 0x00, 0x00, 0x00, 0x00,
  0x00, 0x00, 0x00, 0x00, 0x00, 0x00, 0x00, 0x00, 0x00, 0x00, 0x00, 0x00,
  0x00, 0x00, 0x00, 0x00, 0x00, 0x00, 0x00, 0x00, 0x00, 0x00, 0x00, 0x00,
  0x00, 0x00, 0x00, 0x00, 0x00, 0x00, 0x00, 0x00, 0x00, 0x00, 0x00, 0x00,
  0x00, 0x00, 0x00, 0x00, 0x00, 0x00, 0x00, 0x00, 0x00, 0x00, 0x00, 0x00,
  0x00, 0x00, 0x00, 0x00, 0x00, 0x00, 0x00, 0x00, 0x00, 0x00, 0x00, 0x00,
  0x00, 0x00, 0x00, 0x00, 0x00, 0x00, 0x00, 0x00, 0x00, 0x00, 0x00, 0x00,
  0x00, 0x00, 0x00, 0x00, 0x00, 0x00, 0x00, 0x00, 0x00, 0x00, 0x00, 0x00,
  0x10, 0x00, 0x00, 0x00, 0xf9, 0xfe, 0x9f, 0x38, 0x40, 0x80, 0x06, 0x39,
  0x73, 0x94, 0x46, 0x39, 0x68, 0xa9, 0xb1, 0x38, 0x9c, 0xed, 0xb4, 0x38,
  0x15, 0x94, 0x29, 0x39, 0xbd, 0x0a, 0xf8, 0x38, 0x75, 0xef, 0x3a, 0x39,
  0xed, 0x76, 0x34, 0x39, 0xca, 0xee, 0x66, 0x39, 0x58, 0x1f, 0xf4, 0x38,
  0xde, 0x61, 0x03, 0x39, 0xd7, 0x01, 0x04, 0x39, 0xfb, 0xcb, 0x44, 0x39,
  0xd6, 0xb5, 0x23, 0x39, 0x33, 0xa8, 0x80, 0x38, 0x12, 0x00, 0x00, 0x00,
  0x74, 0x66, 0x6c, 0x2e, 0x70, 0x73, 0x65, 0x75, 0x64, 0x6f, 0x5f, 0x71,
  0x63, 0x6f, 0x6e, 0x73, 0x74, 0x34, 0x00, 0x00, 0x01, 0x00, 0x00, 0x00,
  0x10, 0x00, 0x00, 0x00, 0x16, 0xfd, 0xff, 0xff, 0x00, 0x00, 0x00, 0x01,
  0x14, 0x00, 0x00, 0x00, 0x88, 0x00, 0x00, 0x00, 0x08, 0x00, 0x00, 0x00,
  0x00, 0x00, 0x00, 0x09, 0x94, 0x00, 0x00, 0x00, 0x94, 0xfc, 0xff, 0xff,
  0x08, 0x00, 0x00, 0x00, 0x4c, 0x00, 0x00, 0x00, 0x08, 0x00, 0x00, 0x00,
  0x00, 0x00, 0x00, 0x00, 0x00, 0x00, 0x00, 0x00, 0x00, 0x00, 0x00, 0x00,
  0x00, 0x00, 0x00, 0x00, 0x00, 0x00, 0x00, 0x00, 0x00, 0x00, 0x00, 0x00,
  0x00, 0x00, 0x00, 0x00, 0x00, 0x00, 0x00, 0x00, 0x00, 0x00, 0x00, 0x00,
  0x00, 0x00, 0x00, 0x00, 0x00, 0x00, 0x00, 0x00, 0x00, 0x00, 0x00, 0x00,
  0x00, 0x00, 0x00, 0x00, 0x00, 0x00, 0x00, 0x00, 0x00, 0x00, 0x00, 0x00,
  0x00, 0x00, 0x00, 0x00, 0x00, 0x00, 0x00, 0x00, 0x08, 0x00, 0x00, 0x00,
  0x34, 0x3c, 0xa9, 0x3c, 0xdd, 0x2d, 0x34, 0x3c, 0x94, 0xb1, 0x12, 0x3d,
  0xaf, 0x03, 0x11, 0x3c, 0x37, 0x14, 0xbf, 0x3c, 0x36, 0x2f, 0x7f, 0x3c,
  0x93, 0x43, 0x18, 0x3c, 0x49, 0x22, 0x9f, 0x3c, 0x12, 0x00, 0x00, 0x00,
  0x74, 0x66, 0x6c, 0x2e, 0x70, 0x73, 0x65, 0x75, 0x64, 0x6f, 0x5f, 0x71,
  0x63, 0x6f, 0x6e, 0x73, 0x74, 0x33, 0x00, 0x00, 0x02, 0x00, 0x00, 0x00,
  0x08, 0x00, 0x00, 0x00, 0x10, 0x00, 0x00, 0x00, 0xce, 0xfd, 0xff, 0xff,
  0x00, 0x00, 0x00, 0x01, 0x14, 0x00, 0x00, 0x00, 0x84, 0x00, 0x00, 0x00,
  0x07, 0x00, 0x00, 0x00, 0x00, 0x00, 0x00, 0x02, 0x90, 0x00, 0x00, 0x00,
  0x4c, 0xfd, 0xff, 0xff, 0x08, 0x00, 0x00, 0x00, 0x48, 0x00, 0x00, 0x00,
  0x08, 0x00, 0x00, 0x00, 0x00, 0x00, 0x00, 0x00, 0x00, 0x00, 0x00, 0x00,
  0x00, 0x00, 0x00, 0x00, 0x00, 0x00, 0x00, 0x00, 0x00, 0x00, 0x00, 0x00,
  0x00, 0x00, 0x00, 0x00, 0x00, 0x00, 0x00, 0x00, 0x00, 0x00, 0x00, 0x00,
  0x00, 0x00, 0x00, 0x00, 0x00, 0x00, 0x00, 0x00, 0x00, 0x00, 0x00, 0x00,
  0x00, 0x00, 0x00, 0x00, 0x00, 0x00, 0x00, 0x00, 0x00, 0x00, 0x00, 0x00,
  0x00, 0x00, 0x00, 0x00, 0x00, 0x00, 0x00, 0x00, 0x08, 0x00, 0x00, 0x00,
  0x01, 0x76, 0x81, 0x3a, 0x36, 0xd5, 0x09, 0x3a, 0x39, 0x6f, 0xe0, 0x3a,
  0x81, 0xdd, 0xdd, 0x39, 0xc3, 0x2b, 0x92, 0x3a, 0xcb, 0x35, 0x43, 0x3a,
  0xee, 0xf4, 0xe8, 0x39, 0xad, 0x77, 0x73, 0x3a, 0x12, 0x00, 0x00, 0x00,
  0x74, 0x66, 0x6c, 0x2e, 0x70, 0x73, 0x65, 0x75, 0x64, 0x6f, 0x5f, 0x71,
  0x63, 0x6f, 0x6e, 0x73, 0x74, 0x32, 0x00, 0x00, 0x01, 0x00, 0x00, 0x00,
  0x08, 0x00, 0x00, 0x00, 0x7e, 0xfe, 0xff, 0xff, 0x00, 0x00, 0x00, 0x01,
  0x14, 0x00, 0x00, 0x00, 0x58, 0x00, 0x00, 0x00, 0x06, 0x00, 0x00, 0x00,
  0x00, 0x00, 0x00, 0x09, 0x64, 0x00, 0x00, 0x00, 0xfc, 0xfd, 0xff, 0xff,
  0x08, 0x00, 0x00, 0x00, 0x2c, 0x00, 0x00, 0x00, 0x04, 0x00, 0x00, 0x00,
  0x00, 0x00, 0x00, 0x00, 0x00, 0x00, 0x00, 0x00, 0x00, 0x00, 0x00, 0x00,
  0x00, 0x00, 0x00, 0x00, 0x00, 0x00, 0x00, 0x00, 0x00, 0x00, 0x00, 0x00,
  0x00, 0x00, 0x00, 0x00, 0x00, 0x00, 0x00, 0x00, 0x00, 0x00, 0x00, 0x00,
  0x04, 0x00, 0x00, 0x00, 0xbc, 0x64, 0x30, 0x3c, 0x3c, 0xa2, 0x20, 0x3c,
  0x1a, 0xc9, 0x8d, 0x3c, 0xa7, 0xd7, 0x9a, 0x3c, 0x12, 0x00, 0x00, 0x00,
  0x74, 0x66, 0x6c, 0x2e, 0x70, 0x73, 0x65, 0x75, 0x64, 0x6f, 0x5f, 0x71,
  0x63, 0x6f, 0x6e, 0x73, 0x74, 0x31, 0x00, 0x00, 0x02, 0x00, 0x00, 0x00,
  0x04, 0x00, 0x00, 0x00, 0x08, 0x00, 0x00, 0x00, 0x06, 0xff, 0xff, 0xff,
  0x00, 0x00, 0x00, 0x01, 0x14, 0x00, 0x00, 0x00, 0x58, 0x00, 0x00, 0x00,
  0x05, 0x00, 0x00, 0x00, 0x00, 0x00, 0x00, 0x02, 0x64, 0x00, 0x00, 0x00,
  0x84, 0xfe, 0xff, 0xff, 0x08, 0x00, 0x00, 0x00, 0x2c, 0x00, 0x00, 0x00,
  0x04, 0x00, 0x00, 0x00, 0x00, 0x00, 0x00, 0x00, 0x00, 0x00, 0x00, 0x00,
  0x00, 0x00, 0x00, 0x00, 0x00, 0x00, 0x00, 0x00, 0x00, 0x00, 0x00, 0x00,
  0x00, 0x00, 0x00, 0x00, 0x00, 0x00, 0x00, 0x00, 0x00, 0x00, 0x00, 0x00,
  0x00, 0x00, 0x00, 0x00, 0x04, 0x00, 0x00, 0x00, 0xa5, 0x39, 0x16, 0x3b,
  0xac, 0xcd, 0x08, 0x3b, 0xb6, 0x80, 0x71, 0x3b, 0x08, 0xdf, 0x83, 0x3b,
  0x11, 0x00, 0x00, 0x00, 0x74, 0x66, 0x6c, 0x2e, 0x70, 0x73, 0x65, 0x75,
  0x64, 0x6f, 0x5f, 0x71, 0x63, 0x6f, 0x6e, 0x73, 0x74, 0x00, 0x00, 0x00,
  0x01, 0x00, 0x00, 0x00, 0x04, 0x00, 0x00, 0x00, 0x8a, 0xff, 0xff, 0xff,
  0x00, 0x00, 0x00, 0x01, 0x14, 0x00, 0x00, 0x00, 0x14, 0x00, 0x00, 0x00,
  0x04, 0x00, 0x00, 0x00, 0x00, 0x00, 0x00, 0x02, 0x1c, 0x00, 0x00, 0x00,
  0x74, 0xff, 0xff, 0xff, 0x0f, 0x00, 0x00, 0x00, 0x61, 0x72, 0x69, 0x74,
  0x68, 0x2e, 0x63, 0x6f, 0x6e, 0x73, 0x74, 0x61, 0x6e, 0x74, 0x32, 0x00,
  0x00, 0x00, 0x00, 0x00, 0xc2, 0xff, 0xff, 0xff, 0x00, 0x00, 0x00, 0x01,
  0x14, 0x00, 0x00, 0x00, 0x14, 0x00, 0x00, 0x00, 0x03, 0x00, 0x00, 0x00,
  0x00, 0x00, 0x00, 0x02, 0x1c, 0x00, 0x00, 0x00, 0xac, 0xff, 0xff, 0xff,
  0x0f, 0x00, 0x00, 0x00, 0x61, 0x72, 0x69, 0x74, 0x68, 0x2e, 0x63, 0x6f,
  0x6e, 0x73, 0x74, 0x61, 0x6e, 0x74, 0x31, 0x00, 0x01, 0x00, 0x00, 0x00,
  0x01, 0x00, 0x00, 0x00, 0x00, 0x00, 0x16, 0x00, 0x1c, 0x00, 0x18, 0x00,
  0x17, 0x00, 0x10, 0x00, 0x0c, 0x00, 0x08, 0x00, 0x00, 0x00, 0x00, 0x00,
  0x00, 0x00, 0x07, 0x00, 0x16, 0x00, 0x00, 0x00, 0x00, 0x00, 0x00, 0x01,
  0x18, 0x00, 0x00, 0x00, 0x18, 0x00, 0x00, 0x00, 0x02, 0x00, 0x00, 0x00,
  0x00, 0x00, 0x00, 0x02, 0x20, 0x00, 0x00, 0x00, 0x04, 0x00, 0x04, 0x00,
  0x04, 0x00, 0x00, 0x00, 0x0e, 0x00, 0x00, 0x00, 0x61, 0x72, 0x69, 0x74,
  0x68, 0x2e, 0x63, 0x6f, 0x6e, 0x73, 0x74, 0x61, 0x6e, 0x74, 0x00, 0x00,
  0x01, 0x00, 0x00, 0x00, 0x01, 0x00, 0x00, 0x00, 0x00, 0x00, 0x16, 0x00,
  0x20, 0x00, 0x1c, 0x00, 0x1b, 0x00, 0x14, 0x00, 0x10, 0x00, 0x0c, 0x00,
  0x00, 0x00, 0x00, 0x00, 0x08, 0x00, 0x07, 0x00, 0x16, 0x00, 0x00, 0x00,
  0x00, 0x00, 0x00, 0x01, 0x18, 0x00, 0x00, 0x00, 0x30, 0x00, 0x00, 0x00,
  0x50, 0x00, 0x00, 0x00, 0x01, 0x00, 0x00, 0x00, 0x00, 0x00, 0x00, 0x09,
  0x6c, 0x00, 0x00, 0x00, 0x03, 0x00, 0x00, 0x00, 0xff, 0xff, 0xff, 0xff,
  0x14, 0x00, 0x00, 0x00, 0x03, 0x00, 0x00, 0x00, 0x0c, 0x00, 0x0c, 0x00,
  0x00, 0x00, 0x00, 0x00, 0x08, 0x00, 0x04, 0x00, 0x0c, 0x00, 0x00, 0x00,
  0x08, 0x00, 0x00, 0x00, 0x14, 0x00, 0x00, 0x00, 0x01, 0x00, 0x00, 0x00,
  0xca, 0xff, 0xff, 0xff, 0xff, 0xff, 0xff, 0xff, 0x00, 0x00, 0x00, 0x00,
  0x01, 0x00, 0x00, 0x00, 0x17, 0x33, 0x00, 0x3d, 0x21, 0x00, 0x00, 0x00,
  0x73, 0x65, 0x72, 0x76, 0x69, 0x6e, 0x67, 0x5f, 0x64, 0x65, 0x66, 0x61,
  0x75, 0x6c, 0x74, 0x5f, 0x6b, 0x65, 0x72, 0x61, 0x73, 0x5f, 0x74, 0x65,
  0x6e, 0x73, 0x6f, 0x72, 0x5f, 0x31, 0x30, 0x3a, 0x30, 0x00, 0x00, 0x00,
  0x03, 0x00, 0x00, 0x00, 0x01, 0x00, 0x00, 0x00, 0x14, 0x00, 0x00, 0x00,
  0x03, 0x00, 0x00, 0x00, 0x06, 0x00, 0x00, 0x00, 0x74, 0x00, 0x00, 0x00,
  0x58, 0x00, 0x00, 0x00, 0x48, 0x00, 0x00, 0x00, 0x38, 0x00, 0x00, 0x00,
  0x24, 0x00, 0x00, 0x00, 0x04, 0x00, 0x00, 0x00, 0xf0, 0xff, 0xff, 0xff,
  0x0e, 0x00, 0x00, 0x00, 0x02, 0x00, 0x00, 0x00, 0x00, 0x00, 0x00, 0x0e,
  0x0c, 0x00, 0x10, 0x00, 0x0f, 0x00, 0x00, 0x00, 0x08, 0x00, 0x04, 0x00,
  0x0c, 0x00, 0x00, 0x00, 0x09, 0x00, 0x00, 0x00, 0x04, 0x00, 0x00, 0x00,
  0x00, 0x00, 0x00, 0x09, 0xdc, 0xff, 0xff, 0xff, 0x16, 0x00, 0x00, 0x00,
  0x00, 0x00, 0x00, 0x16, 0xe8, 0xff, 0xff, 0xff, 0x53, 0x00, 0x00, 0x00,
  0x00, 0x00, 0x00, 0x53, 0xf4, 0xff, 0xff, 0xff, 0x2d, 0x00, 0x00, 0x00,
  0x00, 0x00, 0x00, 0x2d, 0x0c, 0x00, 0x0c, 0x00, 0x0b, 0x00, 0x00, 0x00,
  0x00, 0x00, 0x04, 0x00, 0x0c, 0x00, 0x00, 0x00, 0x4d, 0x00, 0x00, 0x00,
  0x00, 0x00, 0x00, 0x4d
};
unsigned int ecg_model_int8_tflite_len = 5296;
