const unsigned char model_tflite[] = {0x1c, 0x00, 0x00, 0x00, 0x54, 0x46, 0x4c, 0x33, 0x14, 0x00, 0x20, 0x00, 0x1c, 0x00, 0x18, 0x00, 0x14, 0x00, 0x10, 0x00, 0x0c, 0x00, 0x00, 0x00, 0x08, 0x00, 0x04, 0x00, 0x14, 0x00, 0x00, 0x00, 0x1c, 0x00, 0x00, 0x00, 0x8c, 0x00, 0x00, 0x00, 0xdc, 0x00, 0x00, 0x00, 0x54, 0x21, 0x00, 0x00, 0x64, 0x21, 0x00, 0x00, 0xf0, 0x16, 0x01, 0x00, 0x03, 0x00, 0x00, 0x00, 0x01, 0x00, 0x00, 0x00, 0x04, 0x00, 0x00, 0x00, 0x1a, 0x97, 0xff, 0xff, 0x0c, 0x00, 0x00, 0x00, 0x1c, 0x00, 0x00, 0x00, 0x3c, 0x00, 0x00, 0x00, 0x0f, 0x00, 0x00, 0x00, 0x73, 0x65, 0x72, 0x76, 0x69, 0x6e, 0x67, 0x5f, 0x64, 0x65, 0x66, 0x61, 0x75, 0x6c, 0x74, 0x00, 0x01, 0x00, 0x00, 0x00, 0x04, 0x00, 0x00, 0x00, 0x58, 0xa1, 0xff, 0xff, 0xab, 0x01, 0x00, 0x00, 0x04, 0x00, 0x00, 0x00, 0x08, 0x00, 0x00, 0x00, 0x6f, 0x75, 0x74, 0x70, 0x75, 0x74, 0x5f, 0x30, 0x00, 0x00, 0x00, 0x00, 0x01, 0x00, 0x00, 0x00, 0x04, 0x00, 0x00, 0x00, 0xd6, 0x97, 0xff, 0xff, 0x04, 0x00, 0x00, 0x00, 0x0c, 0x00, 0x00, 0x00, 0x6b, 0x65, 0x72, 0x61, 0x73, 0x5f, 0x74, 0x65, 0x6e, 0x73, 0x6f, 0x72, 0x00, 0x00, 0x00, 0x00, 0x02, 0x00, 0x00, 0x00, 0x2c, 0x00, 0x00, 0x00, 0x04, 0x00, 0x00, 0x00, 0xa4, 0xa1, 0xff, 0xff, 0xae, 0x01, 0x00, 0x00, 0x04, 0x00, 0x00, 0x00, 0x13, 0x00, 0x00, 0x00, 0x43, 0x4f, 0x4e, 0x56, 0x45, 0x52, 0x53, 0x49, 0x4f, 0x4e, 0x5f, 0x4d, 0x45, 0x54, 0x41, 0x44, 0x41, 0x54, 0x41, 0x00, 0xc8, 0xa1, 0xff, 0xff, 0xad, 0x01, 0x00, 0x00, 0x04, 0x00, 0x00, 0x00, 0x13, 0x00, 0x00, 0x00, 0x6d, 0x69, 0x6e, 0x5f, 0x72, 0x75, 0x6e, 0x74, 0x69, 0x6d, 0x65, 0x5f, 0x76, 0x65, 0x72, 0x73, 0x69, 0x6f, 0x6e, 0x00, 0xaf, 0x01, 0x00, 0x00, 0x74, 0x20, 0x00, 0x00, 0x6c, 0x20, 0x00, 0x00, 0x3c, 0x20, 0x00, 0x00, 0x1c, 0x20, 0x00, 0x00, 0x4c, 0x1f, 0x00, 0x00, 0xbc, 0x1e, 0x00, 0x00, 0xac, 0x1c, 0x00, 0x00, 0x9c, 0x18, 0x00, 0x00, 0x8c, 0x10, 0x00, 0x00, 0x3c, 0x0e, 0x00, 0x00, 0x28, 0x0e, 0x00, 0x00, 0x14, 0x0e, 0x00, 0x00, 0xf8, 0x0d, 0x00, 0x00, 0xe4, 0x0d, 0x00, 0x00, 0xdc, 0x0d, 0x00, 0x00, 0xc8, 0x0d, 0x00, 0x00, 0xb0, 0x0d, 0x00, 0x00, 0x98, 0x0d, 0x00, 0x00, 0x80, 0x0d, 0x00, 0x00, 0x68, 0x0d, 0x00, 0x00, 0x54, 0x0d, 0x00, 0x00, 0x4c, 0x0d, 0x00, 0x00, 0x44, 0x0d, 0x00, 0x00, 0x3c, 0x0d, 0x00, 0x00, 0x34, 0x0d, 0x00, 0x00, 0x2c, 0x0d, 0x00, 0x00, 0x24, 0x0d, 0x00, 0x00, 0x1c, 0x0d, 0x00, 0x00, 0x14, 0x0d, 0x00, 0x00, 0x0c, 0x0d, 0x00, 0x00, 0x04, 0x0d, 0x00, 0x00, 0xfc, 0x0c, 0x00, 0x00, 0xf4, 0x0c, 0x00, 0x00, 0xec, 0x0c, 0x00, 0x00, 0xe4, 0x0c, 0x00, 0x00, 0xdc, 0x0c, 0x00, 0x00, 0xd4, 0x0c, 0x00, 0x00, 0xcc, 0x0c, 0x00, 0x00, 0xc4, 0x0c, 0x00, 0x00, 0xbc, 0x0c, 0x00, 0x00, 0xb4, 0x0c, 0x00, 0x00, 0xac, 0x0c, 0x00, 0x00, 0xa4, 0x0c, 0x00, 0x00, 0x9c, 0x0c, 0x00, 0x00, 0x94, 0x0c, 0x00, 0x00, 0x8c, 0x0c, 0x00, 0x00, 0x84, 0x0c, 0x00, 0x00, 0x7c, 0x0c, 0x00, 0x00, 0x74, 0x0c, 0x00, 0x00, 0x6c, 0x0c, 0x00, 0x00, 0x64, 0x0c, 0x00, 0x00, 0x5c, 0x0c, 0x00, 0x00, 0x54, 0x0c, 0x00, 0x00, 0x4c, 0x0c, 0x00, 0x00, 0x44, 0x0c, 0x00, 0x00, 0x3c, 0x0c, 0x00, 0x00, 0x34, 0x0c, 0x00, 0x00, 0x2c, 0x0c, 0x00, 0x00, 0x24, 0x0c, 0x00, 0x00, 0x1c, 0x0c, 0x00, 0x00, 0x14, 0x0c, 0x00, 0x00, 0x0c, 0x0c, 0x00, 0x00, 0x04, 0x0c, 0x00, 0x00, 0xfc, 0x0b, 0x00, 0x00, 0xf4, 0x0b, 0x00, 0x00, 0xec, 0x0b, 0x00, 0x00, 0xe4, 0x0b, 0x00, 0x00, 0xdc, 0x0b, 0x00, 0x00, 0xd4, 0x0b, 0x00, 0x00, 0xcc, 0x0b, 0x00, 0x00, 0xc4, 0x0b, 0x00, 0x00, 0xbc, 0x0b, 0x00, 0x00, 0xb4, 0x0b, 0x00, 0x00, 0xac, 0x0b, 0x00, 0x00, 0xa4, 0x0b, 0x00, 0x00, 0x9c, 0x0b, 0x00, 0x00, 0x94, 0x0b, 0x00, 0x00, 0x8c, 0x0b, 0x00, 0x00, 0x84, 0x0b, 0x00, 0x00, 0x7c, 0x0b, 0x00, 0x00, 0x74, 0x0b, 0x00, 0x00, 0x6c, 0x0b, 0x00, 0x00, 0x64, 0x0b, 0x00, 0x00, 0x5c, 0x0b, 0x00, 0x00, 0x54, 0x0b, 0x00, 0x00, 0x4c, 0x0b, 0x00, 0x00, 0x44, 0x0b, 0x00, 0x00, 0x3c, 0x0b, 0x00, 0x00, 0x34, 0x0b, 0x00, 0x00, 0x2c, 0x0b, 0x00, 0x00, 0x24, 0x0b, 0x00, 0x00, 0x1c, 0x0b, 0x00, 0x00, 0x14, 0x0b, 0x00, 0x00, 0x0c, 0x0b, 0x00, 0x00, 0x04, 0x0b, 0x00, 0x00, 0xfc, 0x0a, 0x00, 0x00, 0xf4, 0x0a, 0x00, 0x00, 0xec, 0x0a, 0x00, 0x00, 0xe4, 0x0a, 0x00, 0x00, 0xdc, 0x0a, 0x00, 0x00, 0xd4, 0x0a, 0x00, 0x00, 0xcc, 0x0a, 0x00, 0x00, 0xc4, 0x0a, 0x00, 0x00, 0xbc, 0x0a, 0x00, 0x00, 0xb4, 0x0a, 0x00, 0x00, 0xac, 0x0a, 0x00, 0x00, 0xa4, 0x0a, 0x00, 0x00, 0x9c, 0x0a, 0x00, 0x00, 0x94, 0x0a, 0x00, 0x00, 0x8c, 0x0a, 0x00, 0x00, 0x84, 0x0a, 0x00, 0x00, 0x7c, 0x0a, 0x00, 0x00, 0x74, 0x0a, 0x00, 0x00, 0x6c, 0x0a, 0x00, 0x00, 0x64, 0x0a, 0x00, 0x00, 0x5c, 0x0a, 0x00, 0x00, 0x54, 0x0a, 0x00, 0x00, 0x4c, 0x0a, 0x00, 0x00, 0x44, 0x0a, 0x00, 0x00, 0x3c, 0x0a, 0x00, 0x00, 0x34, 0x0a, 0x00, 0x00, 0x2c, 0x0a, 0x00, 0x00, 0x24, 0x0a, 0x00, 0x00, 0x1c, 0x0a, 0x00, 0x00, 0x14, 0x0a, 0x00, 0x00, 0x0c, 0x0a, 0x00, 0x00, 0x04, 0x0a, 0x00, 0x00, 0xfc, 0x09, 0x00, 0x00, 0xf4, 0x09, 0x00, 0x00, 0xec, 0x09, 0x00, 0x00, 0xe4, 0x09, 0x00, 0x00, 0xdc, 0x09, 0x00, 0x00, 0xd4, 0x09, 0x00, 0x00, 0xcc, 0x09, 0x00, 0x00, 0xc4, 0x09, 0x00, 0x00, 0xbc, 0x09, 0x00, 0x00, 0xb4, 0x09, 0x00, 0x00, 0xac, 0x09, 0x00, 0x00, 0xa4, 0x09, 0x00, 0x00, 0x9c, 0x09, 0x00, 0x00, 0x94, 0x09, 0x00, 0x00, 0x8c, 0x09, 0x00, 0x00, 0x84, 0x09, 0x00, 0x00, 0x7c, 0x09, 0x00, 0x00, 0x74, 0x09, 0x00, 0x00, 0x6c, 0x09, 0x00, 0x00, 0x64, 0x09, 0x00, 0x00, 0x5c, 0x09, 0x00, 0x00, 0x54, 0x09, 0x00, 0x00, 0x4c, 0x09, 0x00, 0x00, 0x44, 0x09, 0x00, 0x00, 0x3c, 0x09, 0x00, 0x00, 0x34, 0x09, 0x00, 0x00, 0x2c, 0x09, 0x00, 0x00, 0x24, 0x09, 0x00, 0x00, 0x1c, 0x09, 0x00, 0x00, 0x14, 0x09, 0x00, 0x00, 0x0c, 0x09, 0x00, 0x00, 0x04, 0x09, 0x00, 0x00, 0xfc, 0x08, 0x00, 0x00, 0xf4, 0x08, 0x00, 0x00, 0xec, 0x08, 0x00, 0x00, 0xe4, 0x08, 0x00, 0x00, 0xdc, 0x08, 0x00, 0x00, 0xd4, 0x08, 0x00, 0x00, 0xcc, 0x08, 0x00, 0x00, 0xc4, 0x08, 0x00, 0x00, 0xbc, 0x08, 0x00, 0x00, 0xb4, 0x08, 0x00, 0x00, 0xac, 0x08, 0x00, 0x00, 0xa4, 0x08, 0x00, 0x00, 0x9c, 0x08, 0x00, 0x00, 0x94, 0x08, 0x00, 0x00, 0x8c, 0x08, 0x00, 0x00, 0x84, 0x08, 0x00, 0x00, 0x7c, 0x08, 0x00, 0x00, 0x74, 0x08, 0x00, 0x00, 0x6c, 0x08, 0x00, 0x00, 0x64, 0x08, 0x00, 0x00, 0x5c, 0x08, 0x00, 0x00, 0x54, 0x08, 0x00, 0x00, 0x4c, 0x08, 0x00, 0x00, 0x44, 0x08, 0x00, 0x00, 0x3c, 0x08, 0x00, 0x00, 0x34, 0x08, 0x00, 0x00, 0x2c, 0x08, 0x00, 0x00, 0x24, 0x08, 0x00, 0x00, 0x1c, 0x08, 0x00, 0x00, 0x14, 0x08, 0x00, 0x00, 0x0c, 0x08, 0x00, 0x00, 0x04, 0x08, 0x00, 0x00, 0xfc, 0x07, 0x00, 0x00, 0xf4, 0x07, 0x00, 0x00, 0xec, 0x07, 0x00, 0x00, 0xe4, 0x07, 0x00, 0x00, 0xdc, 0x07, 0x00, 0x00, 0xd4, 0x07, 0x00, 0x00, 0xcc, 0x07, 0x00, 0x00, 0xc4, 0x07, 0x00, 0x00, 0xbc, 0x07, 0x00, 0x00, 0xb4, 0x07, 0x00, 0x00, 0xac, 0x07, 0x00, 0x00, 0xa4, 0x07, 0x00, 0x00, 0x9c, 0x07, 0x00, 0x00, 0x94, 0x07, 0x00, 0x00, 0x8c, 0x07, 0x00, 0x00, 0x84, 0x07, 0x00, 0x00, 0x7c, 0x07, 0x00, 0x00, 0x74, 0x07, 0x00, 0x00, 0x6c, 0x07, 0x00, 0x00, 0x64, 0x07, 0x00, 0x00, 0x5c, 0x07, 0x00, 0x00, 0x54, 0x07, 0x00, 0x00, 0x4c, 0x07, 0x00, 0x00, 0x44, 0x07, 0x00, 0x00, 0x3c, 0x07, 0x00, 0x00, 0x34, 0x07, 0x00, 0x00, 0x2c, 0x07, 0x00, 0x00, 0x24, 0x07, 0x00, 0x00, 0x1c, 0x07, 0x00, 0x00, 0x14, 0x07, 0x00, 0x00, 0x0c, 0x07, 0x00, 0x00, 0x04, 0x07, 0x00, 0x00, 0xfc, 0x06, 0x00, 0x00, 0xf4, 0x06, 0x00, 0x00, 0xec, 0x06, 0x00, 0x00, 0xe4, 0x06, 0x00, 0x00, 0xdc, 0x06, 0x00, 0x00, 0xd4, 0x06, 0x00, 0x00, 0xcc, 0x06, 0x00, 0x00, 0xc4, 0x06, 0x00, 0x00, 0xbc, 0x06, 0x00, 0x00, 0xb4, 0x06, 0x00, 0x00, 0xac, 0x06, 0x00, 0x00, 0xa4, 0x06, 0x00, 0x00, 0x9c, 0x06, 0x00, 0x00, 0x94, 0x06, 0x00, 0x00, 0x8c, 0x06, 0x00, 0x00, 0x84, 0x06, 0x00, 0x00, 0x7c, 0x06, 0x00, 0x00, 0x74, 0x06, 0x00, 0x00, 0x6c, 0x06, 0x00, 0x00, 0x64, 0x06, 0x00, 0x00, 0x5c, 0x06, 0x00, 0x00, 0x54, 0x06, 0x00, 0x00, 0x4c, 0x06, 0x00, 0x00, 0x44, 0x06, 0x00, 0x00, 0x3c, 0x06, 0x00, 0x00, 0x34, 0x06, 0x00, 0x00, 0x2c, 0x06, 0x00, 0x00, 0x24, 0x06, 0x00, 0x00, 0x1c, 0x06, 0x00, 0x00, 0x14, 0x06, 0x00, 0x00, 0x0c, 0x06, 0x00, 0x00, 0x04, 0x06, 0x00, 0x00, 0xfc, 0x05, 0x00, 0x00, 0xf4, 0x05, 0x00, 0x00, 0xec, 0x05, 0x00, 0x00, 0xe4, 0x05, 0x00, 0x00, 0xdc, 0x05, 0x00, 0x00, 0xd4, 0x05, 0x00, 0x00, 0xcc, 0x05, 0x00, 0x00, 0xc4, 0x05, 0x00, 0x00, 0xbc, 0x05, 0x00, 0x00, 0xb4, 0x05, 0x00, 0x00, 0xac, 0x05, 0x00, 0x00, 0xa4, 0x05, 0x00, 0x00, 0x9c, 0x05, 0x00, 0x00, 0x94, 0x05, 0x00, 0x00, 0x8c, 0x05, 0x00, 0x00, 0x84, 0x05, 0x00, 0x00, 0x7c, 0x05, 0x00, 0x00, 0x74, 0x05, 0x00, 0x00, 0x6c, 0x05, 0x00, 0x00, 0x64, 0x05, 0x00, 0x00, 0x5c, 0x05, 0x00, 0x00, 0x54, 0x05, 0x00, 0x00, 0x4c, 0x05, 0x00, 0x00, 0x44, 0x05, 0x00, 0x00, 0x3c, 0x05, 0x00, 0x00, 0x34, 0x05, 0x00, 0x00, 0x2c, 0x05, 0x00, 0x00, 0x24, 0x05, 0x00, 0x00, 0x1c, 0x05, 0x00, 0x00, 0x14, 0x05, 0x00, 0x00, 0x0c, 0x05, 0x00, 0x00, 0x04, 0x05, 0x00, 0x00, 0xfc, 0x04, 0x00, 0x00, 0xf4, 0x04, 0x00, 0x00, 0xec, 0x04, 0x00, 0x00, 0xe4, 0x04, 0x00, 0x00, 0xdc, 0x04, 0x00, 0x00, 0xd4, 0x04, 0x00, 0x00, 0xcc, 0x04, 0x00, 0x00, 0xc4, 0x04, 0x00, 0x00, 0xbc, 0x04, 0x00, 0x00, 0xb4, 0x04, 0x00, 0x00, 0xac, 0x04, 0x00, 0x00, 0xa4, 0x04, 0x00, 0x00, 0x9c, 0x04, 0x00, 0x00, 0x94, 0x04, 0x00, 0x00, 0x8c, 0x04, 0x00, 0x00, 0x84, 0x04, 0x00, 0x00, 0x7c, 0x04, 0x00, 0x00, 0x74, 0x04, 0x00, 0x00, 0x6c, 0x04, 0x00, 0x00, 0x64, 0x04, 0x00, 0x00, 0x5c, 0x04, 0x00, 0x00, 0x54, 0x04, 0x00, 0x00, 0x4c, 0x04, 0x00, 0x00, 0x44, 0x04, 0x00, 0x00, 0x3c, 0x04, 0x00, 0x00, 0x34, 0x04, 0x00, 0x00, 0x2c, 0x04, 0x00, 0x00, 0x24, 0x04, 0x00, 0x00, 0x1c, 0x04, 0x00, 0x00, 0x14, 0x04, 0x00, 0x00, 0x0c, 0x04, 0x00, 0x00, 0x04, 0x04, 0x00, 0x00, 0xfc, 0x03, 0x00, 0x00, 0xf4, 0x03, 0x00, 0x00, 0xec, 0x03, 0x00, 0x00, 0xe4, 0x03, 0x00, 0x00, 0xdc, 0x03, 0x00, 0x00, 0xd4, 0x03, 0x00, 0x00, 0xcc, 0x03, 0x00, 0x00, 0xc4, 0x03, 0x00, 0x00, 0xbc, 0x03, 0x00, 0x00, 0xb4, 0x03, 0x00, 0x00, 0xac, 0x03, 0x00, 0x00, 0xa4, 0x03, 0x00, 0x00, 0x9c, 0x03, 0x00, 0x00, 0x94, 0x03, 0x00, 0x00, 0x8c, 0x03, 0x00, 0x00, 0x84, 0x03, 0x00, 0x00, 0x7c, 0x03, 0x00, 0x00, 0x74, 0x03, 0x00, 0x00, 0x6c, 0x03, 0x00, 0x00, 0x64, 0x03, 0x00, 0x00, 0x5c, 0x03, 0x00, 0x00, 0x54, 0x03, 0x00, 0x00, 0x4c, 0x03, 0x00, 0x00, 0x44, 0x03, 0x00, 0x00, 0x3c, 0x03, 0x00, 0x00, 0x34, 0x03, 0x00, 0x00, 0x2c, 0x03, 0x00, 0x00, 0x24, 0x03, 0x00, 0x00, 0x1c, 0x03, 0x00, 0x00, 0x14, 0x03, 0x00, 0x00, 0x0c, 0x03, 0x00, 0x00, 0x04, 0x03, 0x00, 0x00, 0xfc, 0x02, 0x00, 0x00, 0xf4, 0x02, 0x00, 0x00, 0xec, 0x02, 0x00, 0x00, 0xe4, 0x02, 0x00, 0x00, 0xdc, 0x02, 0x00, 0x00, 0xd4, 0x02, 0x00, 0x00, 0xcc, 0x02, 0x00, 0x00, 0xc4, 0x02, 0x00, 0x00, 0xbc, 0x02, 0x00, 0x00, 0xb4, 0x02, 0x00, 0x00, 0xac, 0x02, 0x00, 0x00, 0xa4, 0x02, 0x00, 0x00, 0x9c, 0x02, 0x00, 0x00, 0x94, 0x02, 0x00, 0x00, 0x8c, 0x02, 0x00, 0x00, 0x84, 0x02, 0x00, 0x00, 0x7c, 0x02, 0x00, 0x00, 0x74, 0x02, 0x00, 0x00, 0x6c, 0x02, 0x00, 0x00, 0x64, 0x02, 0x00, 0x00, 0x5c, 0x02, 0x00, 0x00, 0x54, 0x02, 0x00, 0x00, 0x4c, 0x02, 0x00, 0x00, 0x44, 0x02, 0x00, 0x00, 0x3c, 0x02, 0x00, 0x00, 0x34, 0x02, 0x00, 0x00, 0x2c, 0x02, 0x00, 0x00, 0x24, 0x02, 0x00, 0x00, 0x1c, 0x02, 0x00, 0x00, 0x14, 0x02, 0x00, 0x00, 0x0c, 0x02, 0x00, 0x00, 0x04, 0x02, 0x00, 0x00, 0xfc, 0x01, 0x00, 0x00, 0xf4, 0x01, 0x00, 0x00, 0xec, 0x01, 0x00, 0x00, 0xe4, 0x01, 0x00, 0x00, 0xdc, 0x01, 0x00, 0x00, 0xd4, 0x01, 0x00, 0x00, 0xcc, 0x01, 0x00, 0x00, 0xc4, 0x01, 0x00, 0x00, 0xbc, 0x01, 0x00, 0x00, 0xb4, 0x01, 0x00, 0x00, 0xac, 0x01, 0x00, 0x00, 0xa4, 0x01, 0x00, 0x00, 0x9c, 0x01, 0x00, 0x00, 0x94, 0x01, 0x00, 0x00, 0x8c, 0x01, 0x00, 0x00, 0x84, 0x01, 0x00, 0x00, 0x7c, 0x01, 0x00, 0x00, 0x74, 0x01, 0x00, 0x00, 0x6c, 0x01, 0x00, 0x00, 0x64, 0x01, 0x00, 0x00, 0x5c, 0x01, 0x00, 0x00, 0x54, 0x01, 0x00, 0x00, 0x4c, 0x01, 0x00, 0x00, 0x44, 0x01, 0x00, 0x00, 0x3c, 0x01, 0x00, 0x00, 0x34, 0x01, 0x00, 0x00, 0x2c, 0x01, 0x00, 0x00, 0x24, 0x01, 0x00, 0x00, 0x1c, 0x01, 0x00, 0x00, 0x14, 0x01, 0x00, 0x00, 0x0c, 0x01, 0x00, 0x00, 0x04, 0x01, 0x00, 0x00, 0xfc, 0x00, 0x00, 0x00, 0xf4, 0x00, 0x00, 0x00, 0xec, 0x00, 0x00, 0x00, 0xe4, 0x00, 0x00, 0x00, 0xdc, 0x00, 0x00, 0x00, 0xd4, 0x00, 0x00, 0x00, 0xcc, 0x00, 0x00, 0x00, 0xc4, 0x00, 0x00, 0x00, 0xbc, 0x00, 0x00, 0x00, 0xb4, 0x00, 0x00, 0x00, 0xac, 0x00, 0x00, 0x00, 0xa4, 0x00, 0x00, 0x00, 0x9c, 0x00, 0x00, 0x00, 0x94, 0x00, 0x00, 0x00, 0x74, 0x00, 0x00, 0x00, 0x04, 0x00, 0x00, 0x00, 0x06, 0x9f, 0xff, 0xff, 0x04, 0x00, 0x00, 0x00, 0x60, 0x00, 0x00, 0x00, 0x0c, 0x00, 0x00, 0x00, 0x08, 0x00, 0x0e, 0x00, 0x08, 0x00, 0x04, 0x00, 0x08, 0x00, 0x00, 0x00, 0x10, 0x00, 0x00, 0x00, 0x28, 0x00, 0x00, 0x00, 0x00, 0x00, 0x06, 0x00, 0x08, 0x00, 0x04, 0x00, 0x06, 0x00, 0x00, 0x00, 0x04, 0x00, 0x00, 0x00, 0x01, 0x00, 0x00, 0x00, 0xea, 0x03, 0x00, 0x00, 0x0c, 0x00, 0x18, 0x00, 0x14, 0x00, 0x10, 0x00, 0x0c, 0x00, 0x04, 0x00, 0x0c, 0x00, 0x00, 0x00, 0x8a, 0xa4, 0xd5, 0x3c, 0x56, 0x38, 0x0b, 0x28, 0x02, 0x00, 0x00, 0x00, 0x02, 0x00, 0x00, 0x00, 0x04, 0x00, 0x00, 0x00, 0x06, 0x00, 0x00, 0x00, 0x32, 0x2e, 0x32, 0x30, 0x2e, 0x30, 0x00, 0x00, 0x72, 0x9f, 0xff, 0xff, 0x04, 0x00, 0x00, 0x00, 0x10, 0x00, 0x00, 0x00, 0x31, 0x2e, 0x31, 0x34, 0x2e, 0x30, 0x00, 0x00, 0x00, 0x00, 0x00, 0x00, 0x00, 0x00, 0x00, 0x00, 0xc0, 0xf0, 0xfe, 0xff, 0xc4, 0xf0, 0xfe, 0xff, 0xc8, 0xf0, 0xfe, 0xff, 0xcc, 0xf0, 0xfe, 0xff, 0xd0, 0xf0, 0xfe, 0xff, 0xd4, 0xf0, 0xfe, 0xff, 0xd8, 0xf0, 0xfe, 0xff, 0xdc, 0xf0, 0xfe, 0xff, 0xe0, 0xf0, 0xfe, 0xff, 0xe4, 0xf0, 0xfe, 0xff, 0xe8, 0xf0, 0xfe, 0xff, 0xec, 0xf0, 0xfe, 0xff, 0xf0, 0xf0, 0xfe, 0xff, 0xf4, 0xf0, 0xfe, 0xff, 0xf8, 0xf0, 0xfe, 0xff, 0xfc, 0xf0, 0xfe, 0xff, 0x00, 0xf1, 0xfe, 0xff, 0x04, 0xf1, 0xfe, 0xff, 0x08, 0xf1, 0xfe, 0xff, 0x0c, 0xf1, 0xfe, 0xff, 0x10, 0xf1, 0xfe, 0xff, 0x14, 0xf1, 0xfe, 0xff, 0x18, 0xf1, 0xfe, 0xff, 0x1c, 0xf1, 0xfe, 0xff, 0x20, 0xf1, 0xfe, 0xff, 0x24, 0xf1, 0xfe, 0xff, 0x28, 0xf1, 0xfe, 0xff, 0x2c, 0xf1, 0xfe, 0xff, 0x30, 0xf1, 0xfe, 0xff, 0x34, 0xf1, 0xfe, 0xff, 0x38, 0xf1, 0xfe, 0xff, 0x3c, 0xf1, 0xfe, 0xff, 0x40, 0xf1, 0xfe, 0xff, 0x44, 0xf1, 0xfe, 0xff, 0x48, 0xf1, 0xfe, 0xff, 0x4c, 0xf1, 0xfe, 0xff, 0x50, 0xf1, 0xfe, 0xff, 0x54, 0xf1, 0xfe, 0xff, 0x58, 0xf1, 0xfe, 0xff, 0x5c, 0xf1, 0xfe, 0xff, 0x60, 0xf1, 0xfe, 0xff, 0x64, 0xf1, 0xfe, 0xff, 0x68, 0xf1, 0xfe, 0xff, 0x6c, 0xf1, 0xfe, 0xff, 0x70, 0xf1, 0xfe, 0xff, 0x74, 0xf1, 0xfe, 0xff, 0x78, 0xf1, 0xfe, 0xff, 0x7c, 0xf1, 0xfe, 0xff, 0x80, 0xf1, 0xfe, 0xff, 0x84, 0xf1, 0xfe, 0xff, 0x88, 0xf1, 0xfe, 0xff, 0x8c, 0xf1, 0xfe, 0xff, 0x90, 0xf1, 0xfe, 0xff, 0x94, 0xf1, 0xfe, 0xff, 0x98, 0xf1, 0xfe, 0xff, 0x9c, 0xf1, 0xfe, 0xff, 0xa0, 0xf1, 0xfe, 0xff, 0xa4, 0xf1, 0xfe, 0xff, 0xa8, 0xf1, 0xfe, 0xff, 0xac, 0xf1, 0xfe, 0xff, 0xb0, 0xf1, 0xfe, 0xff, 0xb4, 0xf1, 0xfe, 0xff, 0xb8, 0xf1, 0xfe, 0xff, 0xbc, 0xf1, 0xfe, 0xff, 0xc0, 0xf1, 0xfe, 0xff, 0xc4, 0xf1, 0xfe, 0xff, 0xc8, 0xf1, 0xfe, 0xff, 0xcc, 0xf1, 0xfe, 0xff, 0xd0, 0xf1, 0xfe, 0xff, 0xd4, 0xf1, 0xfe, 0xff, 0xd8, 0xf1, 0xfe, 0xff, 0xdc, 0xf1, 0xfe, 0xff, 0xe0, 0xf1, 0xfe, 0xff, 0xe4, 0xf1, 0xfe, 0xff, 0xe8, 0xf1, 0xfe, 0xff, 0xec, 0xf1, 0xfe, 0xff, 0xf0, 0xf1, 0xfe, 0xff, 0xf4, 0xf1, 0xfe, 0xff, 0xf8, 0xf1, 0xfe, 0xff, 0xfc, 0xf1, 0xfe, 0xff, 0x00, 0xf2, 0xfe, 0xff, 0x04, 0xf2, 0xfe, 0xff, 0x08, 0xf2, 0xfe, 0xff, 0x0c, 0xf2, 0xfe, 0xff, 0x10, 0xf2, 0xfe, 0xff, 0x14, 0xf2, 0xfe, 0xff, 0x18, 0xf2, 0xfe, 0xff, 0x1c, 0xf2, 0xfe, 0xff, 0x20, 0xf2, 0xfe, 0xff, 0x24, 0xf2, 0xfe, 0xff, 0x28, 0xf2, 0xfe, 0xff, 0x2c, 0xf2, 0xfe, 0xff, 0x30, 0xf2, 0xfe, 0xff, 0x34, 0xf2, 0xfe, 0xff, 0x38, 0xf2, 0xfe, 0xff, 0x3c, 0xf2, 0xfe, 0xff, 0x40, 0xf2, 0xfe, 0xff, 0x44, 0xf2, 0xfe, 0xff, 0x48, 0xf2, 0xfe, 0xff, 0x4c, 0xf2, 0xfe, 0xff, 0x50, 0xf2, 0xfe, 0xff, 0x54, 0xf2, 0xfe, 0xff, 0x58, 0xf2, 0xfe, 0xff, 0x5c, 0xf2, 0xfe, 0xff, 0x60, 0xf2, 0xfe, 0xff, 0x64, 0xf2, 0xfe, 0xff, 0x68, 0xf2, 0xfe, 0xff, 0x6c, 0xf2, 0xfe, 0xff, 0x70, 0xf2, 0xfe, 0xff, 0x74, 0xf2, 0xfe, 0xff, 0x78, 0xf2, 0xfe, 0xff, 0x7c, 0xf2, 0xfe, 0xff, 0x80, 0xf2, 0xfe, 0xff, 0x84, 0xf2, 0xfe, 0xff, 0x88, 0xf2, 0xfe, 0xff, 0x8c, 0xf2, 0xfe, 0xff, 0x90, 0xf2, 0xfe, 0xff, 0x94, 0xf2, 0xfe, 0xff, 0x98, 0xf2, 0xfe, 0xff, 0x9c, 0xf2, 0xfe, 0xff, 0xa0, 0xf2, 0xfe, 0xff, 0xa4, 0xf2, 0xfe, 0xff, 0xa8, 0xf2, 0xfe, 0xff, 0xac, 0xf2, 0xfe, 0xff, 0xb0, 0xf2, 0xfe, 0xff, 0xb4, 0xf2, 0xfe, 0xff, 0xb8, 0xf2, 0xfe, 0xff, 0xbc, 0xf2, 0xfe, 0xff, 0xc0, 0xf2, 0xfe, 0xff, 0xc4, 0xf2, 0xfe, 0xff, 0xc8, 0xf2, 0xfe, 0xff, 0xcc, 0xf2, 0xfe, 0xff, 0xd0, 0xf2, 0xfe, 0xff, 0xd4, 0xf2, 0xfe, 0xff, 0xd8, 0xf2, 0xfe, 0xff, 0xdc, 0xf2, 0xfe, 0xff, 0xe0, 0xf2, 0xfe, 0xff, 0xe4, 0xf2, 0xfe, 0xff, 0xe8, 0xf2, 0xfe, 0xff, 0xec, 0xf2, 0xfe, 0xff, 0xf0, 0xf2, 0xfe, 0xff, 0xf4, 0xf2, 0xfe, 0xff, 0xf8, 0xf2, 0xfe, 0xff, 0xfc, 0xf2, 0xfe, 0xff, 0x00, 0xf3, 0xfe, 0xff, 0x04, 0xf3, 0xfe, 0xff, 0x08, 0xf3, 0xfe, 0xff, 0x0c, 0xf3, 0xfe, 0xff, 0x10, 0xf3, 0xfe, 0xff, 0x14, 0xf3, 0xfe, 0xff, 0x18, 0xf3, 0xfe, 0xff, 0x1c, 0xf3, 0xfe, 0xff, 0x20, 0xf3, 0xfe, 0xff, 0x24, 0xf3, 0xfe, 0xff, 0x28, 0xf3, 0xfe, 0xff, 0x2c, 0xf3, 0xfe, 0xff, 0x30, 0xf3, 0xfe, 0xff, 0x34, 0xf3, 0xfe, 0xff, 0x38, 0xf3, 0xfe, 0xff, 0x3c, 0xf3, 0xfe, 0xff, 0x40, 0xf3, 0xfe, 0xff, 0x44, 0xf3, 0xfe, 0xff, 0x48, 0xf3, 0xfe, 0xff, 0x4c, 0xf3, 0xfe, 0xff, 0x50, 0xf3, 0xfe, 0xff, 0x54, 0xf3, 0xfe, 0xff, 0x58, 0xf3, 0xfe, 0xff, 0x5c, 0xf3, 0xfe, 0xff, 0x60, 0xf3, 0xfe, 0xff, 0x64, 0xf3, 0xfe, 0xff, 0x68, 0xf3, 0xfe, 0xff, 0x6c, 0xf3, 0xfe, 0xff, 0x70, 0xf3, 0xfe, 0xff, 0x74, 0xf3, 0xfe, 0xff, 0x78, 0xf3, 0xfe, 0xff, 0x7c, 0xf3, 0xfe, 0xff, 0x80, 0xf3, 0xfe, 0xff, 0x84, 0xf3, 0xfe, 0xff, 0x88, 0xf3, 0xfe, 0xff, 0x8c, 0xf3, 0xfe, 0xff, 0x90, 0xf3, 0xfe, 0xff, 0x94, 0xf3, 0xfe, 0xff, 0x98, 0xf3, 0xfe, 0xff, 0x9c, 0xf3, 0xfe, 0xff, 0xa0, 0xf3, 0xfe, 0xff, 0xa4, 0xf3, 0xfe, 0xff, 0xa8, 0xf3, 0xfe, 0xff, 0xac, 0xf3, 0xfe, 0xff, 0xb0, 0xf3, 0xfe, 0xff, 0xb4, 0xf3, 0xfe, 0xff, 0xb8, 0xf3, 0xfe, 0xff, 0xbc, 0xf3, 0xfe, 0xff, 0xc0, 0xf3, 0xfe, 0xff, 0xc4, 0xf3, 0xfe, 0xff, 0xc8, 0xf3, 0xfe, 0xff, 0xcc, 0xf3, 0xfe, 0xff, 0xd0, 0xf3, 0xfe, 0xff, 0xd4, 0xf3, 0xfe, 0xff, 0xd8, 0xf3, 0xfe, 0xff, 0xdc, 0xf3, 0xfe, 0xff, 0xe0, 0xf3, 0xfe, 0xff, 0xe4, 0xf3, 0xfe, 0xff, 0xe8, 0xf3, 0xfe, 0xff, 0xec, 0xf3, 0xfe, 0xff, 0xf0, 0xf3, 0xfe, 0xff, 0xf4, 0xf3, 0xfe, 0xff, 0xf8, 0xf3, 0xfe, 0xff, 0xfc, 0xf3, 0xfe, 0xff, 0x00, 0xf4, 0xfe, 0xff, 0x04, 0xf4, 0xfe, 0xff, 0x08, 0xf4, 0xfe, 0xff, 0x0c, 0xf4, 0xfe, 0xff, 0x10, 0xf4, 0xfe, 0xff, 0x14, 0xf4, 0xfe, 0xff, 0x18, 0xf4, 0xfe, 0xff, 0x1c, 0xf4, 0xfe, 0xff, 0x20, 0xf4, 0xfe, 0xff, 0x24, 0xf4, 0xfe, 0xff, 0x28, 0xf4, 0xfe, 0xff, 0x2c, 0xf4, 0xfe, 0xff, 0x30, 0xf4, 0xfe, 0xff, 0x34, 0xf4, 0xfe, 0xff, 0x38, 0xf4, 0xfe, 0xff, 0x3c, 0xf4, 0xfe, 0xff, 0x40, 0xf4, 0xfe, 0xff, 0x44, 0xf4, 0xfe, 0xff, 0x48, 0xf4, 0xfe, 0xff, 0x4c, 0xf4, 0xfe, 0xff, 0x50, 0xf4, 0xfe, 0xff, 0x54, 0xf4, 0xfe, 0xff, 0x58, 0xf4, 0xfe, 0xff, 0x5c, 0xf4, 0xfe, 0xff, 0x60, 0xf4, 0xfe, 0xff, 0x64, 0xf4, 0xfe, 0xff, 0x68, 0xf4, 0xfe, 0xff, 0x6c, 0xf4, 0xfe, 0xff, 0x70, 0xf4, 0xfe, 0xff, 0x74, 0xf4, 0xfe, 0xff, 0x78, 0xf4, 0xfe, 0xff, 0x7c, 0xf4, 0xfe, 0xff, 0x80, 0xf4, 0xfe, 0xff, 0x84, 0xf4, 0xfe, 0xff, 0x88, 0xf4, 0xfe, 0xff, 0x8c, 0xf4, 0xfe, 0xff, 0x90, 0xf4, 0xfe, 0xff, 0x94, 0xf4, 0xfe, 0xff, 0x98, 0xf4, 0xfe, 0xff, 0x9c, 0xf4, 0xfe, 0xff, 0xa0, 0xf4, 0xfe, 0xff, 0xa4, 0xf4, 0xfe, 0xff, 0xa8, 0xf4, 0xfe, 0xff, 0xac, 0xf4, 0xfe, 0xff, 0xb0, 0xf4, 0xfe, 0xff, 0xb4, 0xf4, 0xfe, 0xff, 0xb8, 0xf4, 0xfe, 0xff, 0xbc, 0xf4, 0xfe, 0xff, 0xc0, 0xf4, 0xfe, 0xff, 0xc4, 0xf4, 0xfe, 0xff, 0xc8, 0xf4, 0xfe, 0xff, 0xcc, 0xf4, 0xfe, 0xff, 0xd0, 0xf4, 0xfe, 0xff, 0xd4, 0xf4, 0xfe, 0xff, 0xd8, 0xf4, 0xfe, 0xff, 0xdc, 0xf4, 0xfe, 0xff, 0xe0, 0xf4, 0xfe, 0xff, 0xe4, 0xf4, 0xfe, 0xff, 0xe8, 0xf4, 0xfe, 0xff, 0xec, 0xf4, 0xfe, 0xff, 0xf0, 0xf4, 0xfe, 0xff, 0xf4, 0xf4, 0xfe, 0xff, 0xf8, 0xf4, 0xfe, 0xff, 0xfc, 0xf4, 0xfe, 0xff, 0x00, 0xf5, 0xfe, 0xff, 0x04, 0xf5, 0xfe, 0xff, 0x08, 0xf5, 0xfe, 0xff, 0x0c, 0xf5, 0xfe, 0xff, 0x10, 0xf5, 0xfe, 0xff, 0x14, 0xf5, 0xfe, 0xff, 0x18, 0xf5, 0xfe, 0xff, 0x1c, 0xf5, 0xfe, 0xff, 0x20, 0xf5, 0xfe, 0xff, 0x24, 0xf5, 0xfe, 0xff, 0x28, 0xf5, 0xfe, 0xff, 0x2c, 0xf5, 0xfe, 0xff, 0x30, 0xf5, 0xfe, 0xff, 0x34, 0xf5, 0xfe, 0xff, 0x38, 0xf5, 0xfe, 0xff, 0x3c, 0xf5, 0xfe, 0xff, 0x40, 0xf5, 0xfe, 0xff, 0x44, 0xf5, 0xfe, 0xff, 0x48, 0xf5, 0xfe, 0xff, 0x4c, 0xf5, 0xfe, 0xff, 0x50, 0xf5, 0xfe, 0xff, 0x54, 0xf5, 0xfe, 0xff, 0x58, 0xf5, 0xfe, 0xff, 0x5c, 0xf5, 0xfe, 0xff, 0x60, 0xf5, 0xfe, 0xff, 0x64, 0xf5, 0xfe, 0xff, 0x68, 0xf5, 0xfe, 0xff, 0x6c, 0xf5, 0xfe, 0xff, 0x70, 0xf5, 0xfe, 0xff, 0x74, 0xf5, 0xfe, 0xff, 0x78, 0xf5, 0xfe, 0xff, 0x7c, 0xf5, 0xfe, 0xff, 0x80, 0xf5, 0xfe, 0xff, 0x84, 0xf5, 0xfe, 0xff, 0x88, 0xf5, 0xfe, 0xff, 0x8c, 0xf5, 0xfe, 0xff, 0x90, 0xf5, 0xfe, 0xff, 0x94, 0xf5, 0xfe, 0xff, 0x98, 0xf5, 0xfe, 0xff, 0x9c, 0xf5, 0xfe, 0xff, 0xa0, 0xf5, 0xfe, 0xff, 0xa4, 0xf5, 0xfe, 0xff, 0xa8, 0xf5, 0xfe, 0xff, 0xac, 0xf5, 0xfe, 0xff, 0xb0, 0xf5, 0xfe, 0xff, 0xb4, 0xf5, 0xfe, 0xff, 0xb8, 0xf5, 0xfe, 0xff, 0xbc, 0xf5, 0xfe, 0xff, 0xc0, 0xf5, 0xfe, 0xff, 0xc4, 0xf5, 0xfe, 0xff, 0xc8, 0xf5, 0xfe, 0xff, 0xcc, 0xf5, 0xfe, 0xff, 0xd0, 0xf5, 0xfe, 0xff, 0xd4, 0xf5, 0xfe, 0xff, 0xd8, 0xf5, 0xfe, 0xff, 0xdc, 0xf5, 0xfe, 0xff, 0xe0, 0xf5, 0xfe, 0xff, 0xe4, 0xf5, 0xfe, 0xff, 0xe8, 0xf5, 0xfe, 0xff, 0xec, 0xf5, 0xfe, 0xff, 0xf0, 0xf5, 0xfe, 0xff, 0xf4, 0xf5, 0xfe, 0xff, 0xf8, 0xf5, 0xfe, 0xff, 0xfc, 0xf5, 0xfe, 0xff, 0x00, 0xf6, 0xfe, 0xff, 0x04, 0xf6, 0xfe, 0xff, 0x08, 0xf6, 0xfe, 0xff, 0x0c, 0xf6, 0xfe, 0xff, 0x10, 0xf6, 0xfe, 0xff, 0x14, 0xf6, 0xfe, 0xff, 0x18, 0xf6, 0xfe, 0xff, 0x1c, 0xf6, 0xfe, 0xff, 0x20, 0xf6, 0xfe, 0xff, 0x24, 0xf6, 0xfe, 0xff, 0x28, 0xf6, 0xfe, 0xff, 0x2c, 0xf6, 0xfe, 0xff, 0x30, 0xf6, 0xfe, 0xff, 0x34, 0xf6, 0xfe, 0xff, 0x38, 0xf6, 0xfe, 0xff, 0x3c, 0xf6, 0xfe, 0xff, 0x40, 0xf6, 0xfe, 0xff, 0x44, 0xf6, 0xfe, 0xff, 0x48, 0xf6, 0xfe, 0xff, 0x4c, 0xf6, 0xfe, 0xff, 0x50, 0xf6, 0xfe, 0xff, 0x54, 0xf6, 0xfe, 0xff, 0x58, 0xf6, 0xfe, 0xff, 0x5c, 0xf6, 0xfe, 0xff, 0x60, 0xf6, 0xfe, 0xff, 0x64, 0xf6, 0xfe, 0xff, 0x68, 0xf6, 0xfe, 0xff, 0x6c, 0xf6, 0xfe, 0xff, 0x70, 0xf6, 0xfe, 0xff, 0x74, 0xf6, 0xfe, 0xff, 0x78, 0xf6, 0xfe, 0xff, 0x7c, 0xf6, 0xfe, 0xff, 0x80, 0xf6, 0xfe, 0xff, 0x84, 0xf6, 0xfe, 0xff, 0x88, 0xf6, 0xfe, 0xff, 0x8c, 0xf6, 0xfe, 0xff, 0x90, 0xf6, 0xfe, 0xff, 0x94, 0xf6, 0xfe, 0xff, 0x98, 0xf6, 0xfe, 0xff, 0x9c, 0xf6, 0xfe, 0xff, 0xa0, 0xf6, 0xfe, 0xff, 0xa4, 0xf6, 0xfe, 0xff, 0xa8, 0xf6, 0xfe, 0xff, 0xac, 0xf6, 0xfe, 0xff, 0xb0, 0xf6, 0xfe, 0xff, 0xb4, 0xf6, 0xfe, 0xff, 0xb8, 0xf6, 0xfe, 0xff, 0xbc, 0xf6, 0xfe, 0xff, 0xc0, 0xf6, 0xfe, 0xff, 0xc4, 0xf6, 0xfe, 0xff, 0xc8, 0xf6, 0xfe, 0xff, 0xcc, 0xf6, 0xfe, 0xff, 0xd0, 0xf6, 0xfe, 0xff, 0xd4, 0xf6, 0xfe, 0xff, 0xd8, 0xf6, 0xfe, 0xff, 0xdc, 0xf6, 0xfe, 0xff, 0xe0, 0xf6, 0xfe, 0xff, 0xe4, 0xf6, 0xfe, 0xff, 0xe8, 0xf6, 0xfe, 0xff, 0xec, 0xf6, 0xfe, 0xff, 0xf0, 0xf6, 0xfe, 0xff, 0xf4, 0xf6, 0xfe, 0xff, 0xf8, 0xf6, 0xfe, 0xff, 0xfc, 0xf6, 0xfe, 0xff, 0x00, 0xf7, 0xfe, 0xff, 0x04, 0xf7, 0xfe, 0xff, 0x08, 0xf7, 0xfe, 0xff, 0x0c, 0xf7, 0xfe, 0xff, 0x10, 0xf7, 0xfe, 0xff, 0x14, 0xf7, 0xfe, 0xff, 0x18, 0xf7, 0xfe, 0xff, 0x1c, 0xf7, 0xfe, 0xff, 0xee, 0xa5, 0xff, 0xff, 0x04, 0x00, 0x00, 0x00, 0x04, 0x00, 0x00, 0x00, 0xff, 0xff, 0xff, 0xff, 0xfe, 0xa5, 0xff, 0xff, 0x04, 0x00, 0x00, 0x00, 0x08, 0x00, 0x00, 0x00, 0x00, 0x00, 0x00, 0x00, 0x00, 0x00, 0x00, 0x00, 0x12, 0xa6, 0xff, 0xff, 0x04, 0x00, 0x00, 0x00, 0x08, 0x00, 0x00, 0x00, 0x00, 0x00, 0x00, 0x00, 0x20, 0x00, 0x00, 0x00, 0x26, 0xa6, 0xff, 0xff, 0x04, 0x00, 0x00, 0x00, 0x08, 0x00, 0x00, 0x00, 0x01, 0x00, 0x00, 0x00, 0x01, 0x00, 0x00, 0x00, 0x3a, 0xa6, 0xff, 0xff, 0x04, 0x00, 0x00, 0x00, 0x08, 0x00, 0x00, 0x00, 0x00, 0x00, 0x00, 0x00, 0x10, 0x00, 0x00, 0x00, 0x4e, 0xa6, 0xff, 0xff, 0x04, 0x00, 0x00, 0x00, 0x04, 0x00, 0x00, 0x00, 0x00, 0x00, 0x80, 0x3f, 0x90, 0xf7, 0xfe, 0xff, 0x62, 0xa6, 0xff, 0xff, 0x04, 0x00, 0x00, 0x00, 0x04, 0x00, 0x00, 0x00, 0x01, 0x00, 0x00, 0x00, 0x72, 0xa6, 0xff, 0xff, 0x04, 0x00, 0x00, 0x00, 0x0c, 0x00, 0x00, 0x00, 0x01, 0x00, 0x00, 0x00, 0x00, 0x00, 0x00, 0x00, 0x02, 0x00, 0x00, 0x00, 0x8a, 0xa6, 0xff, 0xff, 0x04, 0x00, 0x00, 0x00, 0x04, 0x00, 0x00, 0x00, 0x00, 0x00, 0x00, 0x00, 0x9a, 0xa6, 0xff, 0xff, 0x04, 0x00, 0x00, 0x00, 0x04, 0x00, 0x00, 0x00, 0x10, 0x00, 0x00, 0x00, 0xaa, 0xa6, 0xff, 0xff, 0x04, 0x00, 0x00, 0x00, 0x40, 0x02, 0x00, 0x00, 0x26, 0xf0, 0xfc, 0xbe, 0xda, 0x4b, 0x2c, 0x3e, 0xc8, 0x34, 0xb7, 0x3e, 0x9c, 0xf5, 0x4d, 0xbf, 0x35, 0x4c, 0x8a, 0xbd, 0xe3, 0xe3, 0x1b, 0x3e, 0x8b, 0x7a, 0x22, 0xbe, 0x16, 0x1f, 0xbc, 0xbe, 0x25, 0x83, 0x07, 0x3d, 0xaf, 0x7b, 0x83, 0x3f, 0xda, 0x09, 0xd5, 0xbf, 0x66, 0x1e, 0x83, 0x3d, 0x87, 0xd0, 0xd7, 0x3f, 0x20, 0xe9, 0x3e, 0xc0, 0x7c, 0x66, 0x2a, 0x3e, 0x35, 0xb8, 0x0f, 0xbf, 0xa1, 0x0e, 0xa9, 0x3f, 0x26, 0x2d, 0x10, 0x3f, 0x95, 0xc8, 0x85, 0xbf, 0x6b, 0x2f, 0xd6, 0x3f, 0x4e, 0xf4, 0x58, 0x3f, 0x32, 0x5b, 0x21, 0x3f, 0x66, 0x28, 0xaf, 0xbf, 0xef, 0xb5, 0xa5, 0x3f, 0x03, 0xce, 0xa4, 0x3e, 0x90, 0x7d, 0x34, 0xbe, 0x23, 0x93, 0x1f, 0x3f, 0xc6, 0xf0, 0x84, 0x3f, 0x9c, 0xee, 0x3e, 0xbf, 0xed, 0x60, 0x14, 0x3e, 0x14, 0xd5, 0x61, 0xbe, 0x11, 0x5c, 0x67, 0xbe, 0xa5, 0x6e, 0xf0, 0x3e, 0xa8, 0x22, 0xeb, 0xbe, 0xed, 0x1c, 0x16, 0xbf, 0x43, 0x72, 0x1b, 0x3e, 0xcf, 0xa4, 0x61, 0xbf, 0xd7, 0x6e, 0x20, 0x3f, 0xa9, 0x61, 0x2e, 0x3c, 0x9c, 0xfa, 0xaa, 0x3f, 0x7b, 0xce, 0x66, 0xbf, 0xd1, 0xdb, 0xd5, 0xbe, 0xb0, 0x03, 0x29, 0x3d, 0x07, 0x17, 0xfd, 0xbe, 0xe6, 0xee, 0x0f, 0x3f, 0x1d, 0x69, 0x6c, 0xbc, 0xca, 0xbd, 0xf7, 0xbd, 0x40, 0x82, 0xfb, 0x3e, 0x9d, 0x77, 0x61, 0x3d, 0xf6, 0xc1, 0xc0, 0x3e, 0x90, 0x24, 0xad, 0x3d, 0xcd, 0x88, 0x99, 0xbe, 0x1a, 0x0d, 0xe4, 0x3e, 0xe8, 0x61, 0x85, 0x3e, 0x88, 0xd1, 0x07, 0xbe, 0xd7, 0x8d, 0xb5, 0xbe, 0x14, 0xa2, 0xa7, 0x3d, 0x2e, 0xef, 0x63, 0xbf, 0x2b, 0x51, 0xb2, 0x3f, 0x15, 0xfb, 0x80, 0xbe, 0xe7, 0x10, 0x26, 0xbf, 0xd5, 0x65, 0x4d, 0x3f, 0x28, 0xea, 0xaa, 0xbe, 0xba, 0x67, 0x37, 0xbf, 0x63, 0x27, 0x67, 0x3f, 0xe7, 0xe7, 0x1f, 0xbf, 0xe3, 0xdd, 0x85, 0x3e, 0x1a, 0x4e, 0x86, 0x3e, 0xf9, 0xc6, 0xbe, 0x3f, 0x5a, 0xc0, 0x0e, 0x3e, 0x7c, 0x3e, 0xe3, 0x3e, 0x90, 0x0a, 0x5d, 0x3e, 0x7e, 0xd7, 0xd3, 0x3e, 0x84, 0x1f, 0xea, 0xbe, 0x46, 0x19, 0x90, 0xbc, 0xf4, 0x0e, 0xbe, 0x3e, 0x1b, 0xac, 0x00, 0xbf, 0xca, 0xd3, 0x88, 0x3e, 0x88, 0x62, 0x6c, 0xbf, 0x4c, 0x26, 0x4d, 0x3f, 0x7d, 0x7f, 0xe1, 0xbd, 0xb0, 0x71, 0x5c, 0x3f, 0xc4, 0x95, 0x39, 0xbf, 0xf8, 0xd2, 0xa5, 0xbc, 0xe6, 0x14, 0x2c, 0xbf, 0xa9, 0xd4, 0xc5, 0x3e, 0x93, 0x53, 0x89, 0xbe, 0xb6, 0x00, 0x20, 0xbc, 0x38, 0x70, 0xbf, 0xbe, 0x02, 0xce, 0x49, 0xbe, 0x6d, 0x64, 0xc6, 0x3e, 0xf0, 0x67, 0xe2, 0xbe, 0x63, 0x9a, 0x87, 0xbd, 0xb1, 0x81, 0x4c, 0xbf, 0xf7, 0x43, 0x13, 0x3f, 0x15, 0xcd, 0x10, 0x3f, 0xdc, 0x66, 0x21, 0xbf, 0x2f, 0xf0, 0x7d, 0x3e, 0x37, 0x39, 0x26, 0x3e, 0x0c, 0x4b, 0x15, 0xbf, 0x92, 0x32, 0x5d, 0x3f, 0x38, 0x2e, 0x68, 0xbe, 0x17, 0x69, 0x16, 0xbf, 0x86, 0xc8, 0xb9, 0x3d, 0x83, 0x1d, 0x54, 0xbe, 0x3b, 0xbf, 0x73, 0xbd, 0xd1, 0x6d, 0x95, 0xbe, 0x8d, 0xb6, 0xd3, 0x3e, 0x71, 0x93, 0x6c, 0xbc, 0x77, 0x02, 0x76, 0xbe, 0x0b, 0xa7, 0x22, 0xbf, 0x1d, 0x2a, 0xe0, 0xbe, 0x78, 0x9e, 0x88, 0xbe, 0x7d, 0xe0, 0x0d, 0x3f, 0x48, 0x7b, 0xad, 0x3e, 0x51, 0xfc, 0xb0, 0xbe, 0xd1, 0x65, 0xeb, 0xbe, 0x09, 0xb5, 0xa9, 0xbd, 0xe2, 0xc7, 0x24, 0xbf, 0xf1, 0xe6, 0x2d, 0x3e, 0xe8, 0x9a, 0x2a, 0x3f, 0x76, 0xaa, 0xaa, 0xbd, 0x0c, 0x32, 0x94, 0xbd, 0x3f, 0x3d, 0x54, 0x3e, 0xe3, 0x7b, 0x8f, 0x3e, 0xb4, 0x20, 0x8f, 0x3d, 0xb6, 0x80, 0xee, 0xbd, 0xf8, 0xae, 0xbb, 0x3e, 0x1d, 0x2d, 0xa0, 0xbc, 0x87, 0x8d, 0x01, 0xbf, 0x33, 0xed, 0xe1, 0xbe, 0xe3, 0x13, 0xa0, 0x3d, 0x5b, 0x30, 0x1f, 0xbf, 0xa6, 0x99, 0x42, 0x3f, 0x58, 0x2b, 0x16, 0x3e, 0x97, 0x07, 0xc1, 0x3e, 0x0b, 0xf2, 0x63, 0xbf, 0x4d, 0x99, 0xde, 0xbe, 0xe9, 0x05, 0x16, 0xbf, 0x74, 0x2a, 0x1d, 0x3e, 0xca, 0xe1, 0x05, 0x3e, 0xca, 0xfb, 0x6e, 0x3e, 0x02, 0x6f, 0xc8, 0xbe, 0xec, 0xb6, 0x71, 0xbe, 0xf6, 0xa8, 0xff, 0xff, 0x04, 0x00, 0x00, 0x00, 0x00, 0x08, 0x00, 0x00, 0xa3, 0x7c, 0x3d, 0x3f, 0xc8, 0x1f, 0x4a, 0x3f, 0x40, 0x48, 0xd8, 0xbf, 0x67, 0x98, 0xbd, 0xbe, 0x95, 0x19, 0xcb, 0xbe, 0x2a, 0xec, 0x13, 0x3f, 0x46, 0x4e, 0x1b, 0xbe, 0x26, 0x51, 0xf7, 0x3e, 0x7e, 0xee, 0x99, 0x3c, 0x9f, 0xd0, 0xeb, 0x3e, 0x36, 0x5d, 0x37, 0x3e, 0xda, 0x84, 0xa9, 0xbb, 0x88, 0xef, 0xb3, 0xbd, 0x52, 0xe4, 0xfc, 0xbf, 0xff, 0x3f, 0xc5, 0xbe, 0xf3, 0x3d, 0x56, 0xbf, 0x22, 0xc1, 0xcd, 0x3f, 0x87, 0x19, 0xfc, 0x3f, 0x88, 0xc6, 0x9b, 0xbf, 0xe7, 0x7a, 0x79, 0xbd, 0x46, 0x55, 0xb3, 0x3e, 0x70, 0x63, 0xe5, 0xbd, 0xf3, 0x71, 0xd9, 0x3e, 0x98, 0x10, 0x6a, 0xbd, 0xef, 0x94, 0xdc, 0x3b, 0xad, 0xa2, 0x6c, 0x3d, 0x36, 0xae, 0x63, 0x3e, 0xe2, 0xdb, 0xd4, 0x3e, 0x6b, 0xc7, 0x18, 0x40, 0xbd, 0xf4, 0x56, 0x3f, 0xa4, 0x75, 0x69, 0xbe, 0x63, 0xd8, 0xe5, 0xbe, 0xf1, 0x10, 0x0c, 0x3f, 0x66, 0xc3, 0x44, 0x3f, 0xcf, 0xec, 0x7a, 0xbf, 0x43, 0x0b, 0xf0, 0x3e, 0x11, 0x48, 0x20, 0xbf, 0xc8, 0x01, 0xd5, 0xbe, 0xe1, 0xfb, 0x85, 0x3f, 0x55, 0x75, 0xe7, 0xbd, 0xde, 0x6c, 0x49, 0x3f, 0xcd, 0x40, 0x8e, 0x3e, 0xde, 0xf6, 0xa1, 0xbe, 0x70, 0xaa, 0x02, 0xc0, 0x91, 0x08, 0x83, 0x3e, 0x56, 0x25, 0x97, 0xbf, 0x8f, 0xf8, 0x82, 0xbf, 0xee, 0x7e, 0x1f, 0x3e, 0x90, 0x4a, 0xbd, 0x3e, 0xf3, 0x43, 0xc8, 0xbf, 0xf2, 0x75, 0xd6, 0x3e, 0x26, 0x14, 0x14, 0x3f, 0xf6, 0x59, 0x71, 0xbe, 0x0d, 0x86, 0x79, 0x3e, 0x6a, 0x84, 0x0a, 0xc0, 0xa8, 0x7d, 0x15, 0xbd, 0xdb, 0xbc, 0x0b, 0xbe, 0x42, 0x4f, 0x9e, 0x3e, 0x7d, 0x66, 0x8e, 0x3e, 0xd2, 0x08, 0xe2, 0x3e, 0x85, 0xe0, 0x6d, 0xbd, 0x25, 0xca, 0x10, 0x40, 0xb0, 0x21, 0x0b, 0x3f, 0x1e, 0x7e, 0xc2, 0x3e, 0x4f, 0x46, 0xb2, 0xbf, 0x62, 0x3c, 0x38, 0xc0, 0xa9, 0xc7, 0xba, 0x3e, 0xc1, 0xf6, 0x62, 0x3f, 0xe6, 0x3a, 0xe9, 0x3f, 0xcc, 0xfb, 0x39, 0xbf, 0x7f, 0x1b, 0xc7, 0xbe, 0xf4, 0x70, 0xea, 0xbd, 0xac, 0xb7, 0x73, 0xbe, 0x23, 0x66, 0x89, 0xbe, 0x2b, 0xec, 0xbd, 0xbc, 0x52, 0x21, 0x64, 0x3e, 0xcf, 0x81, 0x4b, 0xbf, 0xa4, 0xb4, 0xed, 0x3f, 0xfb, 0xe9, 0x30, 0x3e, 0x15, 0x38, 0xea, 0x3e, 0xee, 0x5e, 0x09, 0x3e, 0x3a, 0x5d, 0xb4, 0x3d, 0x05, 0x44, 0xe7, 0xbd, 0x42, 0x68, 0x0a, 0xbe, 0xd3, 0x2c, 0x6b, 0xbf, 0xe4, 0x8c, 0xd9, 0xbf, 0x0f, 0xdf, 0xdf, 0x3d, 0x14, 0x18, 0x0e, 0x3e, 0x35, 0x89, 0xa2, 0x3c, 0x0a, 0x99, 0xc4, 0xbe, 0xfa, 0x54, 0x8c, 0xbe, 0x10, 0xa4, 0x82, 0xbe, 0x70, 0x32, 0x2d, 0xbf, 0x7f, 0xa0, 0xa5, 0xbf, 0x5c, 0x68, 0xa0, 0x3e, 0xfa, 0x8f, 0x6b, 0x3e, 0x6d, 0x43, 0x0d, 0xc0, 0x4a, 0x5d, 0x17, 0xc0, 0xd6, 0x7e, 0x09, 0xbf, 0x4a, 0x4a, 0xf9, 0xbe, 0xb4, 0xe7, 0x5e, 0xbe, 0x06, 0x16, 0xa4, 0x3e, 0x62, 0xd4, 0xa9, 0x3f, 0xd5, 0xe2, 0x6d, 0xbe, 0x11, 0x83, 0x05, 0x3e, 0x6a, 0xf9, 0xab, 0xbe, 0x46, 0x81, 0x88, 0xbd, 0xe0, 0x40, 0x22, 0x3f, 0x5e, 0x7b, 0xc1, 0xbe, 0xa7, 0x4c, 0xfc, 0x3f, 0x3e, 0xf5, 0x9e, 0xbe, 0x98, 0x0f, 0x11, 0x3c, 0x33, 0x64, 0xa6, 0xbf, 0xf3, 0x8d, 0x2e, 0xbf, 0x21, 0xa8, 0x35, 0xbe, 0x56, 0xc8, 0x68, 0x3f, 0x68, 0xef, 0xd8, 0xbf, 0x86, 0xcc, 0x91, 0x3f, 0xa3, 0xe3, 0x48, 0xbe, 0xac, 0x0a, 0x84, 0xbf, 0x3f, 0x3b, 0x0f, 0xbf, 0xf4, 0x19, 0x6e, 0xbd, 0x05, 0x9e, 0x69, 0x3f, 0x79, 0x34, 0xe9, 0xbb, 0xa3, 0x13, 0x8b, 0x3f, 0xa2, 0xfc, 0x80, 0xbf, 0x2d, 0x12, 0xdf, 0x3e, 0x98, 0x6c, 0x6e, 0xbf, 0x7f, 0x15, 0xb8, 0xbd, 0x7e, 0x9a, 0x58, 0x3d, 0x8b, 0xc9, 0x61, 0xbf, 0x1f, 0x57, 0xdb, 0xbd, 0x63, 0xa4, 0x8e, 0x3d, 0xfc, 0x38, 0x22, 0xbe, 0xd3, 0x8c, 0x85, 0xbc, 0x4d, 0xa3, 0xa0, 0xbf, 0xcb, 0x76, 0xeb, 0xbe, 0x0f, 0x4e, 0x57, 0x3e, 0x75, 0xaa, 0xc8, 0xbe, 0xf4, 0x6b, 0xa9, 0xbc, 0x94, 0x4a, 0xa2, 0xbe, 0x96, 0x03, 0x4a, 0x3e, 0xcc, 0x5b, 0xd5, 0x3e, 0x30, 0x18, 0xba, 0x3e, 0xbd, 0xe4, 0x16, 0xbf, 0xb8, 0x19, 0xf0, 0xbe, 0x8c, 0x61, 0xe3, 0x3d, 0xdb, 0x6c, 0x74, 0xbf, 0xe2, 0x25, 0x87, 0xbf, 0x77, 0xe2, 0xde, 0x3e, 0x28, 0xc0, 0xca, 0x3e, 0x3b, 0xd0, 0x3f, 0xbf, 0xb7, 0x3f, 0xbb, 0xbe, 0x59, 0x77, 0x8d, 0x3e, 0x0e, 0x73, 0x42, 0xbe, 0x01, 0x29, 0xda, 0x3c, 0xc5, 0xb5, 0xdb, 0xbe, 0x90, 0x02, 0xed, 0xbd, 0x6e, 0x30, 0x9e, 0x3e, 0x86, 0x5a, 0xc1, 0x3e, 0xbc, 0xe2, 0xe7, 0x3e, 0x78, 0x8f, 0x7a, 0x3e, 0x26, 0xce, 0x87, 0xbc, 0x52, 0x35, 0x75, 0x3c, 0x94, 0x2e, 0x7e, 0x3e, 0xdf, 0xc4, 0xde, 0x3e, 0x3c, 0xda, 0x9f, 0xbd, 0xd9, 0xd9, 0x87, 0xbb, 0x08, 0x01, 0xf6, 0xbe, 0x3b, 0xb1, 0x18, 0xbf, 0x29, 0x7e, 0xb9, 0xbe, 0xef, 0x5a, 0x92, 0x3e, 0x6f, 0xcf, 0x38, 0x3e, 0x32, 0xa0, 0xc7, 0x3e, 0xce, 0x58, 0xdd, 0x3e, 0x04, 0x5a, 0x8b, 0xbe, 0x3b, 0x37, 0xa1, 0x3f, 0xac, 0x93, 0x46, 0xbf, 0x9c, 0xfe, 0x9c, 0xbe, 0x6e, 0x28, 0x43, 0x3f, 0x80, 0xac, 0x92, 0xbf, 0xa9, 0xb2, 0x0f, 0xbe, 0x04, 0x15, 0x47, 0x3e, 0x9b, 0x7c, 0x27, 0xbf, 0x5a, 0x2e, 0x0f, 0x3f, 0x91, 0x2b, 0xfe, 0xbd, 0x42, 0xd8, 0x0a, 0xbf, 0x7d, 0x0e, 0x90, 0xbf, 0x6d, 0x25, 0x6f, 0xbe, 0x32, 0xb0, 0x0d, 0xbf, 0x0c, 0x23, 0x21, 0xbe, 0x67, 0x4a, 0x20, 0x3f, 0x61, 0xc2, 0x1a, 0x3e, 0x92, 0xd3, 0xfd, 0x3e, 0x94, 0x76, 0x1a, 0x3f, 0x47, 0x79, 0xe1, 0xbe, 0x56, 0xa0, 0xef, 0x3e, 0xe3, 0x7f, 0x4c, 0xbf, 0x61, 0x48, 0xea, 0xbd, 0xca, 0xad, 0x07, 0xbf, 0x19, 0x84, 0xf9, 0xbe, 0x9e, 0xe6, 0x28, 0xbf, 0xef, 0x71, 0x7c, 0xbf, 0x9a, 0x75, 0x2b, 0x3e, 0xde, 0x7f, 0x45, 0xbe, 0x59, 0x00, 0xca, 0x3d, 0xff, 0x80, 0x08, 0x3f, 0x25, 0xe8, 0x0f, 0x3f, 0xe9, 0xa3, 0x13, 0xbe, 0xa7, 0x01, 0x1c, 0x3f, 0x47, 0x1a, 0x19, 0xbf, 0xdd, 0x20, 0xaa, 0x3f, 0xa1, 0xfd, 0x04, 0xbf, 0x42, 0x4e, 0x5c, 0x3d, 0xd9, 0xce, 0x2f, 0x3f, 0xaa, 0x54, 0xe6, 0xbe, 0xa3, 0x29, 0xee, 0x3e, 0xa9, 0xb1, 0x2c, 0xbf, 0x9f, 0x59, 0xdd, 0x3d, 0x61, 0x83, 0x15, 0xbf, 0x66, 0x9d, 0x26, 0x3f, 0x19, 0x3a, 0xbf, 0xbf, 0x77, 0xa7, 0x60, 0xbe, 0x51, 0x14, 0xcb, 0xbd, 0x26, 0x87, 0x12, 0x3f, 0x28, 0x4f, 0x94, 0xbe, 0x44, 0x73, 0x67, 0x3f, 0x9a, 0x70, 0x65, 0x3f, 0x35, 0xee, 0x8f, 0xbe, 0x10, 0x81, 0xac, 0x3f, 0x1e, 0x6e, 0x3b, 0xbe, 0x3b, 0x9c, 0x01, 0x3f, 0x8c, 0xb9, 0xb6, 0xbe, 0x8a, 0x92, 0x19, 0x3f, 0x4a, 0x8a, 0x00, 0x3f, 0xef, 0x56, 0xc9, 0x3e, 0x9d, 0x6b, 0x8f, 0x3f, 0xd9, 0xbb, 0x34, 0xbf, 0xb3, 0xe5, 0xfa, 0x3d, 0x78, 0x82, 0x3d, 0xbf, 0xc5, 0x25, 0xc6, 0xbb, 0x7b, 0x14, 0x47, 0xbe, 0xda, 0x8d, 0x93, 0x3c, 0xa7, 0x98, 0x0a, 0x3f, 0x7f, 0x01, 0xc0, 0x3d, 0x3d, 0x5b, 0xb4, 0xbe, 0x17, 0xb8, 0xc4, 0xbe, 0x04, 0xb4, 0x8c, 0xbf, 0x01, 0xdb, 0x03, 0x3f, 0x38, 0x1e, 0x88, 0x3e, 0xab, 0x0e, 0x33, 0xbe, 0x40, 0xd9, 0x99, 0x3d, 0x29, 0x94, 0x26, 0x3e, 0xa1, 0xcd, 0xc6, 0xbd, 0x39, 0x66, 0x6e, 0x3d, 0xe4, 0xa4, 0xf0, 0x3e, 0x3f, 0x90, 0x3a, 0x3f, 0xc2, 0x55, 0x56, 0x3f, 0xf5, 0x9c, 0x29, 0xbf, 0xb4, 0xf0, 0x27, 0x3e, 0x93, 0x45, 0xb8, 0xbd, 0xd8, 0xbd, 0xe3, 0x3e, 0x82, 0x51, 0x11, 0xbf, 0xeb, 0x93, 0x87, 0x3e, 0xe4, 0x36, 0xba, 0x3e, 0xb0, 0xa0, 0x8a, 0x3f, 0xe9, 0x95, 0x87, 0x3f, 0xbc, 0x18, 0xa5, 0xbe, 0x35, 0xbb, 0xfe, 0x3f, 0xb6, 0x5e, 0x18, 0xbf, 0xf4, 0xf8, 0x6a, 0xbe, 0x2f, 0x06, 0xd0, 0xbf, 0x67, 0xc7, 0x23, 0xbf, 0x24, 0xf8, 0x20, 0x3f, 0x0c, 0xf2, 0x12, 0x3f, 0x18, 0x3e, 0xb2, 0x3d, 0x48, 0xd9, 0x0d, 0xbd, 0xf0, 0xf1, 0x2b, 0x3f, 0xc8, 0xaa, 0x9f, 0xbe, 0x1c, 0xcf, 0xdc, 0xbe, 0xee, 0xd1, 0x61, 0xbe, 0x9d, 0x82, 0x23, 0xbd, 0xf6, 0xda, 0x1b, 0x3e, 0x78, 0x4f, 0x79, 0x3e, 0x33, 0x44, 0xfa, 0xbd, 0xad, 0x01, 0x64, 0xbf, 0xb8, 0x1f, 0x9e, 0xbc, 0x1f, 0x54, 0x3a, 0x3d, 0xdb, 0x2d, 0xaa, 0xbe, 0x8d, 0x2d, 0xd0, 0xbc, 0x59, 0xaf, 0xcd, 0x3d, 0x89, 0xfa, 0x8f, 0xbe, 0xa5, 0xc7, 0x9d, 0x3b, 0xee, 0xfe, 0x3c, 0xbe, 0x39, 0x7c, 0xde, 0xbe, 0xc4, 0xfc, 0x01, 0xbe, 0x0c, 0xd4, 0x82, 0xbe, 0x9c, 0xf5, 0xa4, 0xbe, 0x8b, 0x2b, 0x7b, 0xbe, 0xa5, 0x47, 0x18, 0x3e, 0x8e, 0x70, 0xaa, 0xbe, 0xf4, 0xcb, 0xf6, 0x3e, 0x85, 0x5b, 0xa9, 0x3e, 0x93, 0x25, 0xe1, 0x3e, 0xbd, 0xa9, 0xed, 0x3e, 0x26, 0x54, 0xb5, 0x3f, 0xf8, 0x5a, 0xfc, 0xbd, 0xed, 0x46, 0x73, 0xbf, 0xcb, 0xa1, 0x57, 0x3f, 0xbe, 0x6a, 0x04, 0xbf, 0xc6, 0x19, 0xaa, 0x3d, 0x7b, 0x36, 0x96, 0x3d, 0x16, 0x43, 0xa6, 0x3d, 0x77, 0xe8, 0xa4, 0x3d, 0x43, 0x57, 0x8e, 0xbd, 0xc4, 0x99, 0xe7, 0xbe, 0xb8, 0x3e, 0xde, 0xbe, 0xf2, 0x81, 0x33, 0xbe, 0xf3, 0x08, 0xf9, 0xbd, 0xd2, 0xad, 0x2a, 0x3f, 0x92, 0x81, 0x8b, 0xbc, 0x52, 0xc1, 0x00, 0x3f, 0x99, 0xed, 0x9c, 0x3e, 0x67, 0x23, 0xb0, 0x3d, 0x94, 0xd3, 0x1d, 0x3f, 0xde, 0x1f, 0xb8, 0xbf, 0x90, 0xfb, 0x04, 0x3f, 0x1e, 0xca, 0x97, 0xbd, 0x96, 0xa4, 0xb5, 0xbe, 0x41, 0x13, 0x35, 0xbf, 0xc7, 0xbd, 0xdd, 0xbe, 0xbc, 0x7a, 0xb4, 0xbd, 0x8c, 0x30, 0x90, 0xbf, 0x77, 0xd2, 0x1d, 0xbd, 0xce, 0x6e, 0x00, 0x3e, 0xef, 0x43, 0x3d, 0x3f, 0xb8, 0x48, 0x5c, 0x3e, 0x19, 0x05, 0x61, 0xbd, 0xae, 0xb5, 0xe3, 0x3e, 0xc9, 0x0f, 0x4a, 0x3e, 0xcf, 0xee, 0x37, 0x3f, 0x0d, 0x76, 0xa0, 0xbf, 0x8a, 0x46, 0x36, 0x3f, 0xfc, 0xad, 0x29, 0xbf, 0x0a, 0xbf, 0x35, 0xbe, 0xea, 0x61, 0x07, 0xbf, 0x35, 0xea, 0xd2, 0xbe, 0xf1, 0x0a, 0x8a, 0xbe, 0xbd, 0x71, 0x4e, 0xbf, 0x6f, 0xc8, 0xac, 0xbd, 0x01, 0xa1, 0xb2, 0x3d, 0xf2, 0xc7, 0xed, 0x3e, 0x91, 0xce, 0x95, 0x3d, 0xaa, 0x6f, 0xaf, 0x3e, 0x30, 0xdb, 0x3d, 0x3e, 0xed, 0xd5, 0xa0, 0x3e, 0x2d, 0x50, 0xef, 0xbe, 0x19, 0x65, 0x72, 0x3f, 0x9e, 0x25, 0xc5, 0xbe, 0x73, 0x63, 0x52, 0xbf, 0x56, 0xb1, 0x0b, 0xbf, 0x15, 0x36, 0x83, 0xbd, 0xe7, 0x1b, 0xdf, 0xbc, 0xd1, 0xac, 0xf3, 0x3e, 0xa7, 0x5d, 0xb7, 0x3c, 0xf0, 0x2c, 0x21, 0xbf, 0xc7, 0x8b, 0xb8, 0x3e, 0xe2, 0xe8, 0x33, 0x3d, 0x57, 0x42, 0x62, 0x3e, 0x11, 0xd0, 0x11, 0x3c, 0x19, 0xf6, 0xc2, 0xbe, 0xf4, 0x7f, 0xe9, 0xbd, 0xdd, 0x2e, 0x7a, 0xbe, 0x28, 0x50, 0xa3, 0xbc, 0xed, 0x48, 0x33, 0xbc, 0x82, 0x53, 0x3b, 0x3e, 0x86, 0xfa, 0xe7, 0x3d, 0x13, 0x7e, 0x40, 0x3f, 0xa3, 0x9e, 0x55, 0x3f, 0xb1, 0xb5, 0x07, 0xbe, 0x7e, 0x25, 0x00, 0x3f, 0x7e, 0xc9, 0x99, 0x3e, 0x11, 0x44, 0x6b, 0xbe, 0x9d, 0x4d, 0xaf, 0xbe, 0x15, 0xed, 0xb6, 0x3c, 0xa9, 0x27, 0x9d, 0xbe, 0x11, 0xc1, 0xc0, 0xbb, 0x42, 0xc7, 0x0a, 0xbe, 0xa7, 0x0b, 0x0e, 0xbc, 0x6c, 0x9b, 0x4c, 0xbd, 0x4a, 0x4a, 0x00, 0x3e, 0x55, 0x9a, 0xce, 0x3d, 0xf4, 0xfc, 0x20, 0x3e, 0x76, 0xa8, 0xc0, 0xbe, 0x0e, 0x72, 0xad, 0xbe, 0xdf, 0xc2, 0x10, 0x3d, 0xa9, 0x00, 0x81, 0xbe, 0xf7, 0xdc, 0x15, 0xbe, 0x48, 0xc3, 0x73, 0x3c, 0x30, 0xf9, 0x16, 0x3f, 0x40, 0x0d, 0x48, 0xbe, 0x40, 0xe6, 0x23, 0xbc, 0xc0, 0x3a, 0xc2, 0xbe, 0x79, 0x2a, 0xb1, 0x3e, 0x5c, 0x10, 0x0a, 0x3f, 0xd0, 0x62, 0x95, 0xbe, 0x93, 0x51, 0x1a, 0x3e, 0xde, 0x6e, 0x8c, 0x3e, 0x38, 0x4c, 0x2b, 0xbe, 0xe0, 0x21, 0xed, 0xbd, 0xee, 0xb2, 0x2a, 0xbe, 0x66, 0xa9, 0x8e, 0x3e, 0xfe, 0x5a, 0x97, 0xbd, 0x12, 0xbc, 0x25, 0x3f, 0x89, 0x49, 0xb4, 0x3e, 0x60, 0xa6, 0x9c, 0x3d, 0x96, 0x0e, 0x8c, 0x3f, 0x6c, 0x18, 0x20, 0x3e, 0x5a, 0x79, 0x29, 0xbe, 0xf2, 0xe5, 0x0d, 0xbf, 0xb5, 0x21, 0x2c, 0xbf, 0x22, 0x54, 0x8b, 0x3e, 0x3a, 0x6a, 0x79, 0xbe, 0x17, 0xe4, 0xa6, 0xbe, 0x11, 0xa1, 0xf8, 0xbe, 0x46, 0xd8, 0x20, 0x3f, 0x25, 0x06, 0xfb, 0xbc, 0xd5, 0x88, 0x62, 0x3e, 0xf8, 0x0f, 0x91, 0xbd, 0xa2, 0xe8, 0x94, 0x3e, 0x32, 0x73, 0xd0, 0xbd, 0x63, 0xde, 0x8f, 0xbe, 0x2c, 0x33, 0x6e, 0x3e, 0x81, 0x5c, 0x82, 0x3e, 0xbf, 0x64, 0x4d, 0x3e, 0xa5, 0x78, 0xc9, 0xbd, 0x2b, 0x55, 0xe4, 0xbd, 0xfa, 0xb4, 0x0c, 0x3f, 0x9a, 0x7c, 0x58, 0x3e, 0xeb, 0xc8, 0x15, 0x3e, 0x8f, 0xce, 0xdb, 0xbd, 0x0b, 0xda, 0x6d, 0xbe, 0x49, 0x73, 0x91, 0xbe, 0xb8, 0x83, 0x61, 0x3d, 0x97, 0x56, 0x86, 0x3e, 0xca, 0x07, 0x04, 0xbf, 0x33, 0x18, 0x24, 0x3e, 0x38, 0x0d, 0xbb, 0x3d, 0x60, 0xa8, 0x65, 0xbe, 0xf0, 0xef, 0xe7, 0x3d, 0x0e, 0x02, 0xf5, 0x3e, 0xe8, 0x52, 0x69, 0xbf, 0xf4, 0xec, 0x20, 0xbe, 0x5a, 0x22, 0x5a, 0x3e, 0x53, 0xe9, 0xa2, 0xbd, 0x3d, 0xd3, 0x4d, 0xbe, 0x66, 0xb7, 0xf6, 0xbd, 0x8e, 0xe6, 0xc8, 0x3c, 0x85, 0x8f, 0x10, 0xbd, 0xcc, 0x84, 0xcc, 0xbc, 0x39, 0x63, 0xe2, 0xbe, 0x2d, 0x40, 0xf1, 0x3d, 0x19, 0xfd, 0x6d, 0x3e, 0x0f, 0xfd, 0x88, 0x3e, 0x9d, 0xab, 0x5a, 0xbf, 0xd4, 0xc5, 0xc9, 0xbe, 0xef, 0xbb, 0x9d, 0x3e, 0xe0, 0x85, 0x53, 0x3f, 0x37, 0xe5, 0x17, 0x3f, 0x96, 0xbe, 0x69, 0x3e, 0x5c, 0x47, 0x35, 0xbe, 0xc2, 0xfa, 0x29, 0xbf, 0xad, 0x80, 0xb0, 0xbc, 0xde, 0xb3, 0x99, 0xbc, 0x9d, 0xcc, 0xf7, 0xbe, 0x59, 0xf5, 0x95, 0x3e, 0x4c, 0xbd, 0xfc, 0xbe, 0x6b, 0xf7, 0x78, 0x3e, 0x0c, 0x52, 0xcd, 0x3d, 0xfe, 0x27, 0x2e, 0x3f, 0x97, 0x2d, 0xf6, 0x3e, 0xa6, 0x00, 0xd1, 0xbe, 0xd3, 0xe3, 0x09, 0xbf, 0x28, 0x9f, 0x88, 0x3e, 0x39, 0x38, 0xb9, 0xbe, 0x30, 0x26, 0xdd, 0xbe, 0x66, 0x63, 0x40, 0xbc, 0xea, 0x3e, 0x68, 0x3f, 0x22, 0xf6, 0xc7, 0x3e, 0xa9, 0xb5, 0x69, 0x3e, 0x3e, 0xcd, 0x3d, 0x3e, 0xd1, 0x3c, 0x2d, 0xbf, 0xd2, 0xc9, 0x83, 0x3e, 0x36, 0xaf, 0x21, 0xbf, 0xb7, 0x20, 0x5d, 0xbe, 0xda, 0x31, 0x73, 0xbe, 0xe9, 0x18, 0x9d, 0x3e, 0x0a, 0xff, 0x53, 0x3e, 0x68, 0xfc, 0x16, 0x3e, 0x04, 0x43, 0x95, 0x3d, 0xb7, 0x7e, 0xfe, 0xbd, 0x16, 0x3b, 0xc1, 0x3e, 0xd4, 0xd6, 0xd8, 0xbe, 0x1a, 0x2d, 0xe1, 0x3d, 0x76, 0xe3, 0xcf, 0xbd, 0xec, 0x0a, 0x80, 0x3e, 0x1a, 0x24, 0x1b, 0xbe, 0x66, 0xbe, 0x8a, 0xbd, 0x1c, 0xb7, 0x76, 0xbe, 0xc9, 0x33, 0x08, 0x3e, 0x0e, 0xe8, 0x8c, 0x3e, 0xad, 0xfe, 0x24, 0x3e, 0x02, 0xb1, 0xff, 0xff, 0x04, 0x00, 0x00, 0x00, 0x00, 0x04, 0x00, 0x00, 0x1d, 0x11, 0x3e, 0x3e, 0xb3, 0x92, 0x59, 0xbf, 0x16, 0xed, 0x50, 0xbe, 0x73, 0xd5, 0x89, 0x3e, 0x76, 0x1b, 0xf3, 0xbd, 0xef, 0x39, 0x4f, 0xbf, 0xbc, 0x58, 0xdd, 0xbd, 0xad, 0xd4, 0x56, 0x3e, 0x34, 0x65, 0x13, 0x3f, 0x4a, 0xcc, 0x67, 0x3e, 0x20, 0xd7, 0x25, 0xbf, 0x40, 0xb1, 0xfa, 0xbe, 0x37, 0xb2, 0x49, 0xbf, 0x99, 0x46, 0xec, 0x3e, 0x06, 0xca, 0x81, 0xbf, 0xca, 0x80, 0xa2, 0x3e, 0xe2, 0x18, 0x48, 0x3d, 0x42, 0xe4, 0x34, 0xbe, 0xdf, 0x08, 0x0c, 0xbd, 0x12, 0x21, 0xbc, 0xbe, 0xf2, 0x9c, 0x1f, 0x3f, 0x91, 0x27, 0xca, 0xbd, 0x32, 0x39, 0xac, 0x3e, 0x4a, 0x78, 0xaa, 0xbe, 0x3b, 0xa0, 0x4b, 0x3c, 0xe1, 0x75, 0xde, 0x3e, 0x7b, 0x3f, 0x1e, 0xbf, 0x1d, 0x02, 0xc4, 0xbe, 0x39, 0x67, 0xb8, 0xbe, 0x0b, 0xd9, 0xa7, 0x3e, 0x73, 0x5f, 0x54, 0xbf, 0x6d, 0xc5, 0xda, 0x3b, 0xf7, 0xf7, 0x16, 0x3e, 0x44, 0x22, 0x37, 0xbf, 0xc8, 0x04, 0x41, 0x3d, 0x91, 0x3d, 0xc2, 0xbc, 0xd9, 0x35, 0x69, 0x3e, 0xda, 0x8a, 0xa7, 0x3c, 0xb2, 0x3f, 0x04, 0x3f, 0x82, 0x16, 0x33, 0xbe, 0xaf, 0x10, 0x11, 0xbf, 0xd4, 0x4d, 0xa0, 0xbe, 0xaf, 0xf2, 0x1f, 0xbf, 0x3b, 0x49, 0xfb, 0x3e, 0xce, 0xcc, 0xc4, 0xbe, 0x5b, 0xf0, 0x95, 0xbd, 0x04, 0xdb, 0xaf, 0xbc, 0x83, 0x5e, 0xe4, 0x3e, 0x6b, 0xf1, 0x5c, 0xbf, 0xf7, 0x2a, 0xc5, 0xbe, 0x33, 0xe4, 0x4c, 0xbe, 0x50, 0x62, 0x9e, 0xbd, 0x16, 0x06, 0x93, 0x3d, 0x19, 0x5e, 0x00, 0x3f, 0xcc, 0x22, 0x19, 0x3f, 0x5f, 0x07, 0xe2, 0xbc, 0x35, 0xa0, 0x8c, 0x3e, 0x77, 0xbf, 0xba, 0x3e, 0xd9, 0xed, 0x41, 0x3e, 0xf8, 0xec, 0x25, 0x3f, 0xf0, 0x5d, 0x35, 0xbb, 0xb0, 0xaf, 0x5e, 0x3e, 0x98, 0x18, 0x09, 0xbf, 0xe5, 0x7f, 0x4d, 0xbf, 0xb6, 0x60, 0xbd, 0xbc, 0xab, 0x97, 0x9f, 0x3e, 0x9d, 0x52, 0x08, 0xbf, 0x87, 0x8f, 0x72, 0xbe, 0xb9, 0xc9, 0x9e, 0x3f, 0x2a, 0x4b, 0xb0, 0xbe, 0x86, 0xc5, 0xd2, 0x3e, 0x14, 0x6a, 0x7c, 0x3e, 0x1a, 0x7b, 0xa4, 0x3e, 0x11, 0xad, 0x08, 0xbb, 0x18, 0xda, 0x19, 0x3e, 0x15, 0xf8, 0x08, 0xbe, 0x8b, 0x49, 0x3d, 0x3e, 0x86, 0x11, 0x1d, 0x3f, 0xf7, 0xfd, 0x2c, 0xbe, 0x66, 0x51, 0x4b, 0xbe, 0xcc, 0x10, 0xf9, 0xbd, 0x57, 0xe0, 0x2a, 0xbf, 0x80, 0xcb, 0x72, 0x3e, 0x13, 0x0f, 0x30, 0x3f, 0x0d, 0xa7, 0x99, 0xbf, 0x88, 0x52, 0x81, 0x3f, 0x03, 0x27, 0x09, 0x3f, 0xa0, 0xfd, 0x05, 0x3e, 0xd4, 0x0f, 0x95, 0xbc, 0x22, 0x84, 0xcf, 0xbd, 0x26, 0x96, 0xc6, 0x3d, 0x3b, 0x6e, 0x91, 0xba, 0xd1, 0x8a, 0x00, 0x3f, 0x58, 0xb1, 0xd6, 0xbd, 0x4a, 0x3c, 0x30, 0xbe, 0xfb, 0xf3, 0x22, 0x3d, 0x09, 0x98, 0x7d, 0xbf, 0x08, 0x8f, 0x2e, 0x3f, 0xe0, 0xaf, 0x9f, 0xbc, 0x9e, 0xa0, 0xb6, 0x3f, 0x2e, 0xdd, 0xb7, 0x3e, 0x2c, 0xf8, 0x19, 0xbf, 0xcb, 0x97, 0x49, 0x3f, 0x49, 0xa1, 0x1e, 0x3c, 0xa4, 0xe9, 0xca, 0x3b, 0x79, 0x88, 0x93, 0xbe, 0xd5, 0x90, 0x4e, 0xbe, 0x09, 0xf1, 0xaf, 0x3d, 0x4e, 0x6b, 0x0b, 0x3f, 0x87, 0x7e, 0xfc, 0xbe, 0xbb, 0x61, 0xa6, 0xbe, 0x62, 0x00, 0xe2, 0xbe, 0x1a, 0x8d, 0x84, 0xbe, 0xa8, 0x8a, 0xb9, 0xbb, 0xa4, 0xb2, 0x92, 0xbe, 0x2c, 0xf3, 0x16, 0x3f, 0x6a, 0x5e, 0x9b, 0x3e, 0x29, 0x69, 0x7a, 0x3e, 0x05, 0x00, 0x9e, 0xbf, 0x46, 0x35, 0x15, 0x3f, 0xdd, 0xcb, 0x70, 0xbd, 0xb9, 0x6c, 0xe4, 0x3e, 0x56, 0x86, 0xb7, 0x3d, 0x58, 0x1e, 0x27, 0xbf, 0x58, 0x6f, 0xbe, 0x3e, 0xed, 0x0b, 0xa4, 0x3e, 0xec, 0xc5, 0x86, 0x3f, 0x56, 0x02, 0xd0, 0xbe, 0x3b, 0xa0, 0x89, 0x3e, 0x46, 0xda, 0x5d, 0x3c, 0x09, 0x75, 0x69, 0xbe, 0x4c, 0x61, 0x63, 0x3e, 0xb8, 0x1b, 0x58, 0xbe, 0x8d, 0x94, 0xe7, 0x3d, 0x3a, 0x70, 0xae, 0xbd, 0x54, 0x84, 0xcb, 0x3a, 0x6d, 0x7d, 0x8c, 0x3e, 0x82, 0x13, 0xb9, 0x3e, 0xff, 0x95, 0x6b, 0x3e, 0xf2, 0x49, 0x86, 0xbd, 0xfa, 0xc8, 0xb1, 0x3e, 0x2a, 0x61, 0x07, 0xbd, 0xb0, 0xd7, 0x92, 0x3b, 0xcd, 0xf6, 0x4f, 0xbe, 0xf5, 0x79, 0xe4, 0x3c, 0xa0, 0x44, 0x82, 0x3e, 0xdf, 0x6c, 0x01, 0xbe, 0xdb, 0x35, 0x9e, 0x3d, 0x54, 0xc6, 0xa2, 0x3d, 0x1b, 0x49, 0x74, 0x3e, 0x51, 0x20, 0x6b, 0xbe, 0x84, 0xdf, 0x42, 0xbe, 0xb8, 0xb0, 0x80, 0x3e, 0x15, 0x52, 0x7b, 0x3e, 0x87, 0x52, 0x94, 0x3f, 0x8f, 0x64, 0xde, 0xbe, 0xd6, 0x88, 0x2c, 0xbe, 0x49, 0x3d, 0x33, 0xbd, 0xf3, 0x3f, 0x04, 0xbe, 0xd0, 0x35, 0xf2, 0xbe, 0xe6, 0xb5, 0x83, 0x3d, 0xa7, 0xbf, 0xcd, 0x3e, 0xc4, 0xf6, 0x0c, 0xbc, 0xca, 0xcd, 0xb5, 0xbe, 0xc0, 0xb6, 0x89, 0xbd, 0x18, 0x51, 0x76, 0xbd, 0xf7, 0xec, 0x41, 0xbd, 0x1a, 0xf2, 0xa9, 0xbd, 0x80, 0x67, 0x5c, 0x3c, 0x88, 0xdc, 0x31, 0x3f, 0xec, 0x35, 0xe5, 0x3e, 0xd9, 0xdc, 0x60, 0xbe, 0x65, 0x4a, 0xb4, 0x3e, 0xfc, 0x9d, 0xb3, 0x3d, 0xd2, 0x51, 0x36, 0x3d, 0xeb, 0x98, 0x81, 0xbf, 0x94, 0x48, 0x83, 0xbf, 0x6e, 0x04, 0xf9, 0x3d, 0xcf, 0x14, 0x23, 0x3f, 0x87, 0xda, 0xc8, 0x3e, 0xea, 0xe8, 0x16, 0xbe, 0xf0, 0x03, 0x36, 0xbd, 0xd5, 0x88, 0xb8, 0xbe, 0x57, 0xdb, 0x24, 0x3e, 0xba, 0xc3, 0x90, 0xbf, 0xc3, 0xde, 0x67, 0xbe, 0x0a, 0xaf, 0x64, 0xbe, 0xde, 0xf3, 0xff, 0x3e, 0x58, 0xc7, 0x6a, 0x3e, 0xa8, 0x3f, 0x6e, 0xbd, 0xb3, 0x90, 0x81, 0x3e, 0xa2, 0xdf, 0xbc, 0x3d, 0x56, 0xbf, 0x08, 0xbf, 0x94, 0xd1, 0x3f, 0xbe, 0xf6, 0xfe, 0x5d, 0x3d, 0x59, 0x07, 0x02, 0x3f, 0x08, 0x26, 0xac, 0xbe, 0xd7, 0x13, 0x5d, 0x3e, 0x0b, 0x4b, 0x0a, 0xbd, 0xbf, 0x39, 0x72, 0x3e, 0x56, 0xe3, 0xdc, 0xbc, 0xa0, 0x38, 0x28, 0x3e, 0x70, 0xd4, 0xad, 0xbe, 0x0c, 0x62, 0xea, 0xbe, 0x4f, 0x2b, 0x0d, 0x3d, 0xff, 0x29, 0x68, 0xbe, 0xec, 0xf0, 0x8d, 0x3b, 0x60, 0x0c, 0x09, 0x3e, 0x7f, 0x6c, 0xfc, 0xbe, 0x01, 0xf1, 0x06, 0x3f, 0xe1, 0x7b, 0x03, 0xbd, 0x80, 0x5f, 0x0f, 0xbe, 0x82, 0xb2, 0x08, 0x3f, 0xee, 0x71, 0xb3, 0x3e, 0xe6, 0x1d, 0x57, 0xbe, 0x16, 0xc0, 0x15, 0xbf, 0xfb, 0xd9, 0x06, 0xbe, 0xfb, 0x41, 0x64, 0xbe, 0x43, 0xe7, 0x88, 0x3e, 0xcd, 0xee, 0x84, 0x3e, 0xa3, 0x73, 0xb3, 0xbd, 0x85, 0xd8, 0x0b, 0xbf, 0x9a, 0x72, 0x31, 0x3f, 0x92, 0x6f, 0xc4, 0xbe, 0x99, 0xda, 0xa0, 0xbe, 0x8d, 0x61, 0x39, 0xbd, 0x30, 0xc7, 0xc8, 0xbd, 0xd5, 0xe7, 0xd5, 0xbd, 0x78, 0x59, 0x3c, 0xbf, 0xc8, 0xfb, 0x02, 0xbd, 0x49, 0xde, 0xf5, 0xbd, 0xda, 0x20, 0x44, 0xbe, 0x8d, 0xd5, 0x34, 0xbe, 0xeb, 0xff, 0xbf, 0xbe, 0x0f, 0x24, 0xb2, 0xbe, 0x14, 0xb8, 0x57, 0xbe, 0xc3, 0xea, 0x7e, 0xbe, 0x7a, 0x6a, 0xf2, 0x3e, 0x29, 0x8b, 0x5f, 0x3f, 0xeb, 0xb3, 0x47, 0x3e, 0xab, 0xcf, 0x29, 0xbe, 0x04, 0xd1, 0x30, 0xbf, 0x9a, 0xa0, 0x96, 0x3e, 0x95, 0x60, 0x94, 0xbe, 0x18, 0x85, 0x38, 0x3e, 0x64, 0x99, 0xc0, 0xbe, 0x5a, 0xee, 0x2e, 0x3d, 0x1a, 0x89, 0xe6, 0xbb, 0xec, 0xc4, 0x0f, 0xbe, 0x2d, 0x8c, 0x96, 0xbe, 0x08, 0x82, 0x92, 0xbe, 0x5b, 0x3f, 0x0c, 0x3e, 0x1c, 0x3d, 0x1c, 0xbf, 0x9e, 0x97, 0x32, 0x3f, 0xe6, 0x79, 0xf5, 0xbd, 0x0c, 0x63, 0xce, 0x3d, 0x0e, 0xb5, 0xff, 0xff, 0x04, 0x00, 0x00, 0x00, 0x00, 0x02, 0x00, 0x00, 0x05, 0xa8, 0xdb, 0xbe, 0x86, 0x7a, 0x2d, 0xbf, 0x2a, 0x49, 0x33, 0x3f, 0x51, 0xe8, 0x3e, 0xbf, 0xf1, 0x62, 0x43, 0xbc, 0xe5, 0x67, 0xa2, 0xbe, 0x89, 0x06, 0xca, 0xbf, 0x0e, 0xb1, 0xe1, 0x3e, 0x25, 0xd0, 0xea, 0xbe, 0x70, 0x06, 0xd2, 0xbe, 0xa4, 0x5a, 0x8d, 0xbf, 0xcc, 0xc3, 0x2e, 0x3f, 0xde, 0x60, 0x20, 0xbf, 0x03, 0x66, 0xf9, 0x3e, 0x4a, 0xcb, 0x67, 0x3f, 0x12, 0xa9, 0x0e, 0x3f, 0xd0, 0x8d, 0x7c, 0x3e, 0xaf, 0x88, 0x00, 0xbf, 0x26, 0x3b, 0xb2, 0xbf, 0x05, 0x76, 0xa8, 0x3f, 0xf6, 0x27, 0x89, 0x3e, 0x2f, 0x91, 0x6b, 0x3e, 0xbe, 0x60, 0xa1, 0x3e, 0xb4, 0x76, 0xa6, 0x3f, 0x2c, 0x0b, 0x09, 0x40, 0x3b, 0xc2, 0x22, 0x3f, 0x78, 0xb4, 0x56, 0xbf, 0x83, 0x21, 0x4a, 0xc0, 0x31, 0xb5, 0xa2, 0xbe, 0x37, 0x87, 0xfe, 0x3c, 0xa5, 0xd7, 0xbf, 0xbe, 0x88, 0x43, 0x03, 0x3f, 0xe0, 0xaa, 0x03, 0xbf, 0x1f, 0x12, 0x40, 0xbe, 0x20, 0x9d, 0xfe, 0x3d, 0xe5, 0x13, 0x49, 0x3e, 0x6c, 0x51, 0x4c, 0xbf, 0x2a, 0xf0, 0x6f, 0x3f, 0x2a, 0x41, 0x9c, 0x3e, 0x24, 0x9d, 0x9e, 0xbe, 0x89, 0x6d, 0xb7, 0x3d, 0x66, 0x1f, 0x57, 0xbe, 0x8c, 0x96, 0x49, 0x3f, 0x0d, 0x65, 0x29, 0x3e, 0x45, 0xbe, 0xc7, 0xbe, 0x5f, 0xcd, 0x53, 0x3f, 0x61, 0x6e, 0xe5, 0x3e, 0x8c, 0x47, 0x93, 0xbf, 0x04, 0xd0, 0xc5, 0xbe, 0x3c, 0xbe, 0x82, 0xbd, 0x96, 0x66, 0x4f, 0xbe, 0x22, 0x81, 0x57, 0x3f, 0x43, 0x7a, 0xc3, 0xbe, 0xcb, 0x3f, 0x15, 0x3f, 0xf5, 0x3f, 0x34, 0x3f, 0xbf, 0x5c, 0xa7, 0xbf, 0x14, 0x58, 0xcb, 0xbe, 0x83, 0x4e, 0xfd, 0xbe, 0x32, 0xee, 0x68, 0x3e, 0xcd, 0x61, 0x81, 0x3e, 0x01, 0x6e, 0xbd, 0xbe, 0x31, 0xa9, 0x8d, 0xbe, 0x34, 0x61, 0xee, 0x3e, 0x6e, 0x65, 0x20, 0x3d, 0xd2, 0x38, 0x86, 0x3e, 0xd1, 0x0f, 0x06, 0x3d, 0x0f, 0x53, 0x3f, 0xbe, 0xb4, 0xba, 0xce, 0x3d, 0x18, 0x30, 0xa1, 0x3e, 0xb4, 0x01, 0x6f, 0xbe, 0xaf, 0x2e, 0xca, 0xbd, 0x43, 0x8a, 0x89, 0x3e, 0x46, 0x5f, 0xba, 0xbe, 0x86, 0x2b, 0xe9, 0x3f, 0x0a, 0xc0, 0x7f, 0x40, 0xad, 0x82, 0x41, 0x3e, 0x73, 0x85, 0x8c, 0x3f, 0xaa, 0x35, 0xa9, 0xbe, 0x36, 0xff, 0x13, 0x3f, 0x04, 0x59, 0xdf, 0xbf, 0xcb, 0xa7, 0x04, 0xbf, 0xb2, 0x85, 0x1a, 0xbf, 0xb2, 0x13, 0xcd, 0x3e, 0xd7, 0xcf, 0x42, 0x3f, 0x67, 0x23, 0x28, 0xbf, 0x4d, 0xf8, 0x6d, 0x3f, 0x95, 0xd9, 0xa6, 0x3f, 0x41, 0x10, 0x8f, 0xbf, 0xf6, 0x8f, 0x38, 0xbf, 0xf1, 0x06, 0x60, 0x3e, 0xd1, 0x44, 0x90, 0x3d, 0x35, 0x79, 0xb0, 0xbd, 0x7e, 0xfb, 0x03, 0x3f, 0x9f, 0x73, 0x4f, 0x3e, 0xc8, 0xfd, 0x6d, 0xbd, 0x36, 0x98, 0xbd, 0xbd, 0x3e, 0x9a, 0xac, 0x3e, 0x7d, 0x41, 0x16, 0x3f, 0xfd, 0xa5, 0x91, 0x3e, 0x73, 0xc4, 0x6f, 0x3f, 0xa2, 0x90, 0x29, 0xbf, 0x87, 0xa8, 0x81, 0x3f, 0x55, 0x29, 0x66, 0x3f, 0x6f, 0xe2, 0x55, 0xbf, 0xf2, 0xc1, 0xe4, 0xbe, 0xb3, 0xe4, 0xbf, 0xbe, 0xd5, 0xaf, 0x65, 0x3f, 0x6c, 0xc2, 0xae, 0x3e, 0xe1, 0x65, 0xbd, 0x3d, 0x81, 0xc0, 0x30, 0xbd, 0xd2, 0xc3, 0xb6, 0x3e, 0x6e, 0x7c, 0x57, 0xbe, 0x04, 0x74, 0x9c, 0x3e, 0x24, 0xbf, 0xd2, 0xbe, 0x3a, 0xb9, 0x8d, 0x3e, 0xe4, 0xbe, 0x5a, 0x3f, 0x70, 0x0c, 0x84, 0xbf, 0xd8, 0xf1, 0x09, 0x3f, 0x10, 0xc9, 0x04, 0x40, 0xe7, 0x8a, 0x0d, 0xbf, 0x47, 0x71, 0x3a, 0x3e, 0x29, 0x42, 0x89, 0xbf, 0xe0, 0xe7, 0x36, 0xbf, 0x86, 0xdb, 0x52, 0x3e, 0x6c, 0x1f, 0x24, 0xbf, 0x92, 0x8f, 0x58, 0xbf, 0xe9, 0xc5, 0x06, 0x3d, 0xeb, 0x59, 0xa3, 0x3d, 0x1a, 0xb7, 0xff, 0xff, 0x04, 0x00, 0x00, 0x00, 0x80, 0x00, 0x00, 0x00, 0xaf, 0x2a, 0x35, 0x3f, 0x1e, 0x6c, 0xb3, 0xbf, 0xbe, 0xc6, 0x07, 0xbf, 0x3e, 0xd1, 0xb8, 0xbd, 0x19, 0xd4, 0xaa, 0xbf, 0x48, 0x9e, 0x6e, 0xbf, 0x2b, 0xf5, 0xdb, 0xbe, 0x6c, 0xa5, 0x3c, 0xbf, 0x0d, 0xb8, 0x58, 0xbf, 0xe0, 0x2e, 0xef, 0xbe, 0x02, 0x9d, 0x03, 0x3f, 0x87, 0x8f, 0x3a, 0x3f, 0xd2, 0xac, 0x38, 0xbe, 0xea, 0x87, 0x47, 0x3f, 0x6a, 0xd8, 0x83, 0x3e, 0xb1, 0x52, 0x16, 0x3f, 0x89, 0x04, 0xb4, 0xbf, 0xb3, 0xd6, 0xe4, 0xbf, 0x3f, 0xa7, 0x2c, 0x3f, 0xc2, 0xab, 0xf5, 0xbe, 0x36, 0x4a, 0x44, 0x40, 0xf7, 0x46, 0x2f, 0x3e, 0x4c, 0x13, 0xe3, 0x3e, 0xfc, 0x81, 0xb0, 0xbf, 0x63, 0xea, 0xa7, 0xbf, 0x82, 0xde, 0x1b, 0x40, 0x1f, 0x6c, 0xfd, 0xbf, 0x2e, 0xa9, 0x69, 0xbf, 0x45, 0xaa, 0xb2, 0xc0, 0x93, 0x29, 0xca, 0xbf, 0x7e, 0xde, 0x85, 0xbf, 0x79, 0x6b, 0x67, 0x3f, 0xa6, 0xb7, 0xff, 0xff, 0x04, 0x00, 0x00, 0x00, 0xc0, 0x00, 0x00, 0x00, 0x78, 0x31, 0xee, 0xbe, 0x48, 0x70, 0x02, 0xbf, 0xff, 0x5f, 0x8f, 0xbe, 0xff, 0x83, 0x0c, 0x3f, 0x28, 0x60, 0x40, 0x3d, 0x0f, 0x35, 0x9b, 0xbd, 0x81, 0xb5, 0x04, 0x3f, 0x71, 0x38, 0x43, 0x3f, 0xec, 0x9c, 0xc9, 0xbd, 0x04, 0xa0, 0x94, 0x3e, 0xdc, 0x1b, 0x82, 0x3f, 0xe8, 0xb3, 0xf2, 0xbd, 0xae, 0xce, 0x4b, 0x3f, 0xb4, 0x6c, 0xbc, 0x3e, 0x6e, 0x96, 0x91, 0xbe, 0xe2, 0x4c, 0x53, 0x3f, 0x19, 0x13, 0x05, 0xbf, 0xa8, 0x1b, 0xc3, 0x3e, 0x67, 0x7a, 0x11, 0x3f, 0x29, 0x2a, 0x81, 0xbd, 0x82, 0xa5, 0x0f, 0x39, 0x1d, 0xdf, 0x7d, 0xbd, 0x3c, 0xfb, 0xd6, 0x3e, 0x3f, 0xf7, 0x88, 0xbe, 0x20, 0x44, 0xb0, 0x3e, 0x48, 0x19, 0xbf, 0x3e, 0x45, 0x55, 0x40, 0x3e, 0x2c, 0x25, 0x96, 0x3e, 0x22, 0xdc, 0x57, 0x3e, 0x29, 0x87, 0x01, 0x3f, 0x0d, 0xdd, 0xa1, 0x3e, 0xd1, 0x7e, 0x87, 0x3e, 0x5d, 0x6d, 0x97, 0xbe, 0x81, 0x3c, 0xd1, 0xbe, 0xa1, 0xec, 0xc1, 0x3e, 0x43, 0x7e, 0x35, 0x3e, 0x90, 0x5c, 0xc2, 0xbe, 0xf2, 0x3d, 0x52, 0x3e, 0x3a, 0x91, 0xa7, 0xbe, 0xa7, 0x67, 0x81, 0x3d, 0x14, 0x66, 0xd6, 0xbe, 0xe4, 0xf8, 0xcc, 0xbe, 0xdb, 0xa0, 0xb7, 0xbe, 0x28, 0x59, 0xae, 0x3e, 0x75, 0x51, 0x64, 0xbe, 0x2a, 0xa4, 0x53, 0x3e, 0xe9, 0x53, 0xdd, 0x3e, 0x6f, 0x91, 0x67, 0x3e, 0x72, 0xb8, 0xff, 0xff, 0x04, 0x00, 0x00, 0x00, 0x10, 0x00, 0x00, 0x00, 0x5e, 0xc1, 0xb0, 0xbc, 0x14, 0x02, 0x32, 0x3e, 0x70, 0x43, 0xab, 0x3c, 0x3d, 0x77, 0xd4, 0x3e, 0x8e, 0xb8, 0xff, 0xff, 0x04, 0x00, 0x00, 0x00, 0x20, 0x00, 0x00, 0x00, 0x62, 0x45, 0x05, 0x3f, 0x0a, 0x22, 0xe3, 0x3e, 0xc4, 0x26, 0x36, 0xbe, 0x41, 0x1f, 0xa0, 0x3e, 0x97, 0x1b, 0xc2, 0x3d, 0x96, 0x64, 0x8e, 0xbd, 0xa6, 0x55, 0xaa, 0x3c, 0x1a, 0xbb, 0x8e, 0x3e, 0xec, 0x09, 0xff, 0xff, 0xf0, 0x09, 0xff, 0xff, 0x0f, 0x00, 0x00, 0x00, 0x4d, 0x4c, 0x49, 0x52, 0x20, 0x43, 0x6f, 0x6e, 0x76, 0x65, 0x72, 0x74, 0x65, 0x64, 0x2e, 0x00, 0x01, 0x00, 0x00, 0x00, 0x14, 0x00, 0x00, 0x00, 0x00, 0x00, 0x0e, 0x00, 0x18, 0x00, 0x14, 0x00, 0x10, 0x00, 0x0c, 0x00, 0x08, 0x00, 0x04, 0x00, 0x0e, 0x00, 0x00, 0x00, 0x14, 0x00, 0x00, 0x00, 0x1c, 0x00, 0x00, 0x00, 0x40, 0x48, 0x00, 0x00, 0x44, 0x48, 0x00, 0x00, 0x48, 0x48, 0x00, 0x00, 0x04, 0x00, 0x00, 0x00, 0x6d, 0x61, 0x69, 0x6e, 0x00, 0x00, 0x00, 0x00, 0x5d, 0x01, 0x00, 0x00, 0xf0, 0x47, 0x00, 0x00, 0x90, 0x47, 0x00, 0x00, 0x58, 0x47, 0x00, 0x00, 0xc4, 0x46, 0x00, 0x00, 0x8c, 0x46, 0x00, 0x00, 0x54, 0x46, 0x00, 0x00, 0x1c, 0x46, 0x00, 0x00, 0xdc, 0x45, 0x00, 0x00, 0xa4, 0x45, 0x00, 0x00, 0x64, 0x45, 0x00, 0x00, 0x2c, 0x45, 0x00, 0x00, 0xec, 0x44, 0x00, 0x00, 0xb4, 0x44, 0x00, 0x00, 0x74, 0x44, 0x00, 0x00, 0x3c, 0x44, 0x00, 0x00, 0xfc, 0x43, 0x00, 0x00, 0xc4, 0x43, 0x00, 0x00, 0x84, 0x43, 0x00, 0x00, 0x4c, 0x43, 0x00, 0x00, 0x0c, 0x43, 0x00, 0x00, 0xd4, 0x42, 0x00, 0x00, 0x94, 0x42, 0x00, 0x00, 0x5c, 0x42, 0x00, 0x00, 0x1c, 0x42, 0x00, 0x00, 0xe4, 0x41, 0x00, 0x00, 0xa4, 0x41, 0x00, 0x00, 0x6c, 0x41, 0x00, 0x00, 0x2c, 0x41, 0x00, 0x00, 0xf4, 0x40, 0x00, 0x00, 0xb4, 0x40, 0x00, 0x00, 0x7c, 0x40, 0x00, 0x00, 0x3c, 0x40, 0x00, 0x00, 0x04, 0x40, 0x00, 0x00, 0xc4, 0x3f, 0x00, 0x00, 0x8c, 0x3f, 0x00, 0x00, 0x4c, 0x3f, 0x00, 0x00, 0x14, 0x3f, 0x00, 0x00, 0xd4, 0x3e, 0x00, 0x00, 0x9c, 0x3e, 0x00, 0x00, 0x5c, 0x3e, 0x00, 0x00, 0x24, 0x3e, 0x00, 0x00, 0xe4, 0x3d, 0x00, 0x00, 0xac, 0x3d, 0x00, 0x00, 0x6c, 0x3d, 0x00, 0x00, 0x34, 0x3d, 0x00, 0x00, 0xf4, 0x3c, 0x00, 0x00, 0xbc, 0x3c, 0x00, 0x00, 0x70, 0x3c, 0x00, 0x00, 0x3c, 0x3c, 0x00, 0x00, 0x18, 0x3c, 0x00, 0x00, 0xe4, 0x3b, 0x00, 0x00, 0xb0, 0x3b, 0x00, 0x00, 0x6c, 0x3b, 0x00, 0x00, 0x38, 0x3b, 0x00, 0x00, 0x14, 0x3b, 0x00, 0x00, 0xe0, 0x3a, 0x00, 0x00, 0xa8, 0x3a, 0x00, 0x00, 0x74, 0x3a, 0x00, 0x00, 0x50, 0x3a, 0x00, 0x00, 0x1c, 0x3a, 0x00, 0x00, 0xe8, 0x39, 0x00, 0x00, 0xb0, 0x39, 0x00, 0x00, 0x6c, 0x39, 0x00, 0x00, 0x38, 0x39, 0x00, 0x00, 0x14, 0x39, 0x00, 0x00, 0xe0, 0x38, 0x00, 0x00, 0xac, 0x38, 0x00, 0x00, 0x68, 0x38, 0x00, 0x00, 0x34, 0x38, 0x00, 0x00, 0x10, 0x38, 0x00, 0x00, 0xdc, 0x37, 0x00, 0x00, 0xa4, 0x37, 0x00, 0x00, 0x70, 0x37, 0x00, 0x00, 0x4c, 0x37, 0x00, 0x00, 0x18, 0x37, 0x00, 0x00, 0xe4, 0x36, 0x00, 0x00, 0xac, 0x36, 0x00, 0x00, 0x68, 0x36, 0x00, 0x00, 0x34, 0x36, 0x00, 0x00, 0x10, 0x36, 0x00, 0x00, 0xdc, 0x35, 0x00, 0x00, 0xa8, 0x35, 0x00, 0x00, 0x64, 0x35, 0x00, 0x00, 0x30, 0x35, 0x00, 0x00, 0x0c, 0x35, 0x00, 0x00, 0xd8, 0x34, 0x00, 0x00, 0xa0, 0x34, 0x00, 0x00, 0x6c, 0x34, 0x00, 0x00, 0x48, 0x34, 0x00, 0x00, 0x14, 0x34, 0x00, 0x00, 0xe0, 0x33, 0x00, 0x00, 0xa8, 0x33, 0x00, 0x00, 0x64, 0x33, 0x00, 0x00, 0x30, 0x33, 0x00, 0x00, 0x0c, 0x33, 0x00, 0x00, 0xd8, 0x32, 0x00, 0x00, 0xa4, 0x32, 0x00, 0x00, 0x60, 0x32, 0x00, 0x00, 0x2c, 0x32, 0x00, 0x00, 0x08, 0x32, 0x00, 0x00, 0xd4, 0x31, 0x00, 0x00, 0x9c, 0x31, 0x00, 0x00, 0x68, 0x31, 0x00, 0x00, 0x44, 0x31, 0x00, 0x00, 0x10, 0x31, 0x00, 0x00, 0xdc, 0x30, 0x00, 0x00, 0xa4, 0x30, 0x00, 0x00, 0x60, 0x30, 0x00, 0x00, 0x2c, 0x30, 0x00, 0x00, 0x08, 0x30, 0x00, 0x00, 0xd4, 0x2f, 0x00, 0x00, 0xa0, 0x2f, 0x00, 0x00, 0x5c, 0x2f, 0x00, 0x00, 0x28, 0x2f, 0x00, 0x00, 0x04, 0x2f, 0x00, 0x00, 0xd0, 0x2e, 0x00, 0x00, 0x98, 0x2e, 0x00, 0x00, 0x64, 0x2e, 0x00, 0x00, 0x40, 0x2e, 0x00, 0x00, 0x0c, 0x2e, 0x00, 0x00, 0xd8, 0x2d, 0x00, 0x00, 0xa0, 0x2d, 0x00, 0x00, 0x5c, 0x2d, 0x00, 0x00, 0x28, 0x2d, 0x00, 0x00, 0x04, 0x2d, 0x00, 0x00, 0xd0, 0x2c, 0x00, 0x00, 0x9c, 0x2c, 0x00, 0x00, 0x58, 0x2c, 0x00, 0x00, 0x24, 0x2c, 0x00, 0x00, 0x00, 0x2c, 0x00, 0x00, 0xcc, 0x2b, 0x00, 0x00, 0x94, 0x2b, 0x00, 0x00, 0x60, 0x2b, 0x00, 0x00, 0x3c, 0x2b, 0x00, 0x00, 0x08, 0x2b, 0x00, 0x00, 0xd4, 0x2a, 0x00, 0x00, 0x9c, 0x2a, 0x00, 0x00, 0x58, 0x2a, 0x00, 0x00, 0x24, 0x2a, 0x00, 0x00, 0x00, 0x2a, 0x00, 0x00, 0xcc, 0x29, 0x00, 0x00, 0x98, 0x29, 0x00, 0x00, 0x54, 0x29, 0x00, 0x00, 0x20, 0x29, 0x00, 0x00, 0xfc, 0x28, 0x00, 0x00, 0xc8, 0x28, 0x00, 0x00, 0x90, 0x28, 0x00, 0x00, 0x5c, 0x28, 0x00, 0x00, 0x38, 0x28, 0x00, 0x00, 0x04, 0x28, 0x00, 0x00, 0xd0, 0x27, 0x00, 0x00, 0x98, 0x27, 0x00, 0x00, 0x54, 0x27, 0x00, 0x00, 0x20, 0x27, 0x00, 0x00, 0xfc, 0x26, 0x00, 0x00, 0xc8, 0x26, 0x00, 0x00, 0x94, 0x26, 0x00, 0x00, 0x50, 0x26, 0x00, 0x00, 0x1c, 0x26, 0x00, 0x00, 0xf8, 0x25, 0x00, 0x00, 0xc4, 0x25, 0x00, 0x00, 0x8c, 0x25, 0x00, 0x00, 0x58, 0x25, 0x00, 0x00, 0x34, 0x25, 0x00, 0x00, 0x00, 0x25, 0x00, 0x00, 0xcc, 0x24, 0x00, 0x00, 0x94, 0x24, 0x00, 0x00, 0x50, 0x24, 0x00, 0x00, 0x1c, 0x24, 0x00, 0x00, 0xf8, 0x23, 0x00, 0x00, 0xc4, 0x23, 0x00, 0x00, 0x90, 0x23, 0x00, 0x00, 0x4c, 0x23, 0x00, 0x00, 0x18, 0x23, 0x00, 0x00, 0xf4, 0x22, 0x00, 0x00, 0xc0, 0x22, 0x00, 0x00, 0x88, 0x22, 0x00, 0x00, 0x54, 0x22, 0x00, 0x00, 0x30, 0x22, 0x00, 0x00, 0xfc, 0x21, 0x00, 0x00, 0xc8, 0x21, 0x00, 0x00, 0x90, 0x21, 0x00, 0x00, 0x4c, 0x21, 0x00, 0x00, 0x18, 0x21, 0x00, 0x00, 0xf4, 0x20, 0x00, 0x00, 0xc0, 0x20, 0x00, 0x00, 0x8c, 0x20, 0x00, 0x00, 0x48, 0x20, 0x00, 0x00, 0x14, 0x20, 0x00, 0x00, 0xf0, 0x1f, 0x00, 0x00, 0xbc, 0x1f, 0x00, 0x00, 0x84, 0x1f, 0x00, 0x00, 0x50, 0x1f, 0x00, 0x00, 0x2c, 0x1f, 0x00, 0x00, 0xf8, 0x1e, 0x00, 0x00, 0xc4, 0x1e, 0x00, 0x00, 0x8c, 0x1e, 0x00, 0x00, 0x48, 0x1e, 0x00, 0x00, 0x14, 0x1e, 0x00, 0x00, 0xf0, 0x1d, 0x00, 0x00, 0xbc, 0x1d, 0x00, 0x00, 0x88, 0x1d, 0x00, 0x00, 0x44, 0x1d, 0x00, 0x00, 0x10, 0x1d, 0x00, 0x00, 0xec, 0x1c, 0x00, 0x00, 0xb8, 0x1c, 0x00, 0x00, 0x80, 0x1c, 0x00, 0x00, 0x4c, 0x1c, 0x00, 0x00, 0x28, 0x1c, 0x00, 0x00, 0xf4, 0x1b, 0x00, 0x00, 0xc0, 0x1b, 0x00, 0x00, 0x88, 0x1b, 0x00, 0x00, 0x44, 0x1b, 0x00, 0x00, 0x10, 0x1b, 0x00, 0x00, 0xec, 0x1a, 0x00, 0x00, 0xb8, 0x1a, 0x00, 0x00, 0x84, 0x1a, 0x00, 0x00, 0x40, 0x1a, 0x00, 0x00, 0x0c, 0x1a, 0x00, 0x00, 0xe8, 0x19, 0x00, 0x00, 0xb4, 0x19, 0x00, 0x00, 0x7c, 0x19, 0x00, 0x00, 0x48, 0x19, 0x00, 0x00, 0x24, 0x19, 0x00, 0x00, 0xf0, 0x18, 0x00, 0x00, 0xbc, 0x18, 0x00, 0x00, 0x84, 0x18, 0x00, 0x00, 0x40, 0x18, 0x00, 0x00, 0x0c, 0x18, 0x00, 0x00, 0xe8, 0x17, 0x00, 0x00, 0xb4, 0x17, 0x00, 0x00, 0x80, 0x17, 0x00, 0x00, 0x3c, 0x17, 0x00, 0x00, 0x08, 0x17, 0x00, 0x00, 0xe4, 0x16, 0x00, 0x00, 0xb0, 0x16, 0x00, 0x00, 0x78, 0x16, 0x00, 0x00, 0x44, 0x16, 0x00, 0x00, 0x20, 0x16, 0x00, 0x00, 0xec, 0x15, 0x00, 0x00, 0xb8, 0x15, 0x00, 0x00, 0x80, 0x15, 0x00, 0x00, 0x3c, 0x15, 0x00, 0x00, 0x08, 0x15, 0x00, 0x00, 0xe4, 0x14, 0x00, 0x00, 0xb0, 0x14, 0x00, 0x00, 0x7c, 0x14, 0x00, 0x00, 0x38, 0x14, 0x00, 0x00, 0x04, 0x14, 0x00, 0x00, 0xe0, 0x13, 0x00, 0x00, 0xac, 0x13, 0x00, 0x00, 0x74, 0x13, 0x00, 0x00, 0x40, 0x13, 0x00, 0x00, 0x1c, 0x13, 0x00, 0x00, 0xe8, 0x12, 0x00, 0x00, 0xb4, 0x12, 0x00, 0x00, 0x7c, 0x12, 0x00, 0x00, 0x38, 0x12, 0x00, 0x00, 0x04, 0x12, 0x00, 0x00, 0xe0, 0x11, 0x00, 0x00, 0xac, 0x11, 0x00, 0x00, 0x78, 0x11, 0x00, 0x00, 0x34, 0x11, 0x00, 0x00, 0x00, 0x11, 0x00, 0x00, 0xdc, 0x10, 0x00, 0x00, 0xa8, 0x10, 0x00, 0x00, 0x70, 0x10, 0x00, 0x00, 0x3c, 0x10, 0x00, 0x00, 0x18, 0x10, 0x00, 0x00, 0xe4, 0x0f, 0x00, 0x00, 0xb0, 0x0f, 0x00, 0x00, 0x78, 0x0f, 0x00, 0x00, 0x34, 0x0f, 0x00, 0x00, 0x00, 0x0f, 0x00, 0x00, 0xdc, 0x0e, 0x00, 0x00, 0xa8, 0x0e, 0x00, 0x00, 0x74, 0x0e, 0x00, 0x00, 0x30, 0x0e, 0x00, 0x00, 0xfc, 0x0d, 0x00, 0x00, 0xd8, 0x0d, 0x00, 0x00, 0xa4, 0x0d, 0x00, 0x00, 0x6c, 0x0d, 0x00, 0x00, 0x38, 0x0d, 0x00, 0x00, 0x14, 0x0d, 0x00, 0x00, 0xe0, 0x0c, 0x00, 0x00, 0xac, 0x0c, 0x00, 0x00, 0x74, 0x0c, 0x00, 0x00, 0x30, 0x0c, 0x00, 0x00, 0xfc, 0x0b, 0x00, 0x00, 0xd8, 0x0b, 0x00, 0x00, 0xa4, 0x0b, 0x00, 0x00, 0x70, 0x0b, 0x00, 0x00, 0x2c, 0x0b, 0x00, 0x00, 0xf8, 0x0a, 0x00, 0x00, 0xd4, 0x0a, 0x00, 0x00, 0xa0, 0x0a, 0x00, 0x00, 0x68, 0x0a, 0x00, 0x00, 0x34, 0x0a, 0x00, 0x00, 0x10, 0x0a, 0x00, 0x00, 0xdc, 0x09, 0x00, 0x00, 0xa8, 0x09, 0x00, 0x00, 0x70, 0x09, 0x00, 0x00, 0x2c, 0x09, 0x00, 0x00, 0xf8, 0x08, 0x00, 0x00, 0xd4, 0x08, 0x00, 0x00, 0xa0, 0x08, 0x00, 0x00, 0x6c, 0x08, 0x00, 0x00, 0x28, 0x08, 0x00, 0x00, 0xf4, 0x07, 0x00, 0x00, 0xd0, 0x07, 0x00, 0x00, 0x9c, 0x07, 0x00, 0x00, 0x64, 0x07, 0x00, 0x00, 0x30, 0x07, 0x00, 0x00, 0x0c, 0x07, 0x00, 0x00, 0xd8, 0x06, 0x00, 0x00, 0xa4, 0x06, 0x00, 0x00, 0x6c, 0x06, 0x00, 0x00, 0x28, 0x06, 0x00, 0x00, 0xf4, 0x05, 0x00, 0x00, 0xd0, 0x05, 0x00, 0x00, 0x9c, 0x05, 0x00, 0x00, 0x68, 0x05, 0x00, 0x00, 0x24, 0x05, 0x00, 0x00, 0xf0, 0x04, 0x00, 0x00, 0xcc, 0x04, 0x00, 0x00, 0x98, 0x04, 0x00, 0x00, 0x60, 0x04, 0x00, 0x00, 0x2c, 0x04, 0x00, 0x00, 0x08, 0x04, 0x00, 0x00, 0xd4, 0x03, 0x00, 0x00, 0xa0, 0x03, 0x00, 0x00, 0x68, 0x03, 0x00, 0x00, 0x24, 0x03, 0x00, 0x00, 0xf0, 0x02, 0x00, 0x00, 0xcc, 0x02, 0x00, 0x00, 0x98, 0x02, 0x00, 0x00, 0x64, 0x02, 0x00, 0x00, 0x20, 0x02, 0x00, 0x00, 0xec, 0x01, 0x00, 0x00, 0xc8, 0x01, 0x00, 0x00, 0x94, 0x01, 0x00, 0x00, 0x5c, 0x01, 0x00, 0x00, 0x28, 0x01, 0x00, 0x00, 0x04, 0x01, 0x00, 0x00, 0xd0, 0x00, 0x00, 0x00, 0x9c, 0x00, 0x00, 0x00, 0x60, 0x00, 0x00, 0x00, 0x28, 0x00, 0x00, 0x00, 0x04, 0x00, 0x00, 0x00, 0x1e, 0xbe, 0xff, 0xff, 0x0c, 0x00, 0x00, 0x00, 0x10, 0x00, 0x00, 0x00, 0x09, 0x00, 0x00, 0x00, 0x01, 0x00, 0x00, 0x00, 0xab, 0x01, 0x00, 0x00, 0x01, 0x00, 0x00, 0x00, 0xaa, 0x01, 0x00, 0x00, 0x06, 0xbf, 0xff, 0xff, 0x14, 0x00, 0x00, 0x00, 0x00, 0x00, 0x00, 0x08, 0x10, 0x00, 0x00, 0x00, 0x14, 0x00, 0x00, 0x00, 0x06, 0x00, 0x00, 0x00, 0xf4, 0x0f, 0xff, 0xff, 0x01, 0x00, 0x00, 0x00, 0xaa, 0x01, 0x00, 0x00, 0x03, 0x00, 0x00, 0x00, 0xa9, 0x01, 0x00, 0x00, 0x04, 0x00, 0x00, 0x00, 0x02, 0x00, 0x00, 0x00, 0x3a, 0xbf, 0xff, 0xff, 0x14, 0x00, 0x00, 0x00, 0x00, 0x00, 0x00, 0x08, 0x14, 0x00, 0x00, 0x00, 0x18, 0x00, 0x00, 0x00, 0x06, 0x00, 0x00, 0x00, 0xda, 0xbd, 0xff, 0xff, 0x00, 0x00, 0x00, 0x01, 0x01, 0x00, 0x00, 0x00, 0xa9, 0x01, 0x00, 0x00, 0x03, 0x00, 0x00, 0x00, 0xa8, 0x01, 0x00, 0x00, 0x05, 0x00, 0x00, 0x00, 0x01, 0x00, 0x00, 0x00, 0x72, 0xbf, 0xff, 0xff, 0x14, 0x00, 0x00, 0x00, 0x00, 0x00, 0x00, 0x0b, 0x10, 0x00, 0x00, 0x00, 0x14, 0x00, 0x00, 0x00, 0x08, 0x00, 0x00, 0x00, 0x60, 0x10, 0xff, 0xff, 0x01, 0x00, 0x00, 0x00, 0xa8, 0x01, 0x00, 0x00, 0x02, 0x00, 0x00, 0x00, 0x9f, 0x01, 0x00, 0x00, 0xa7, 0x01, 0x00, 0x00, 0xa2, 0xbf, 0xff, 0xff, 0x14, 0x00, 0x00, 0x00, 0x00, 0x00, 0x00, 0x15, 0x10, 0x00, 0x00, 0x00, 0x14, 0x00, 0x00, 0x00, 0x0a, 0x00, 0x00, 0x00, 0x90, 0x10, 0xff, 0xff, 0x01, 0x00, 0x00, 0x00, 0xa7, 0x01, 0x00, 0x00, 0x02, 0x00, 0x00, 0x00, 0x9e, 0x01, 0x00, 0x00, 0xa6, 0x01, 0x00, 0x00, 0x0a, 0xbf, 0xff, 0xff, 0x0c, 0x00, 0x00, 0x00, 0x10, 0x00, 0x00, 0x00, 0x0c, 0x00, 0x00, 0x00, 0x01, 0x00, 0x00, 0x00, 0xa6, 0x01, 0x00, 0x00, 0x01, 0x00, 0x00, 0x00, 0xa5, 0x01, 0x00, 0x00, 0xf2, 0xbf, 0xff, 0xff, 0x14, 0x00, 0x00, 0x00, 0x00, 0x00, 0x00, 0x0b, 0x10, 0x00, 0x00, 0x00, 0x14, 0x00, 0x00, 0x00, 0x08, 0x00, 0x00, 0x00, 0xe0, 0x10, 0xff, 0xff, 0x01, 0x00, 0x00, 0x00, 0xa5, 0x01, 0x00, 0x00, 0x02, 0x00, 0x00, 0x00, 0x70, 0x00, 0x00, 0x00, 0xa4, 0x01, 0x00, 0x00, 0x22, 0xc0, 0xff, 0xff, 0x14, 0x00, 0x00, 0x00, 0x00, 0x00, 0x00, 0x08, 0x10, 0x00, 0x00, 0x00, 0x14, 0x00, 0x00, 0x00, 0x06, 0x00, 0x00, 0x00, 0x10, 0x11, 0xff, 0xff, 0x01, 0x00, 0x00, 0x00, 0xa4, 0x01, 0x00, 0x00, 0x03, 0x00, 0x00, 0x00, 0xa3, 0x01, 0x00, 0x00, 0x06, 0x00, 0x00, 0x00, 0xff, 0xff, 0xff, 0xff, 0x56, 0xc0, 0xff, 0xff, 0x14, 0x00, 0x00, 0x00, 0x00, 0x00, 0x00, 0x15, 0x10, 0x00, 0x00, 0x00, 0x14, 0x00, 0x00, 0x00, 0x0a, 0x00, 0x00, 0x00, 0x44, 0x11, 0xff, 0xff, 0x01, 0x00, 0x00, 0x00, 0xa3, 0x01, 0x00, 0x00, 0x02, 0x00, 0x00, 0x00, 0xa2, 0x01, 0x00, 0x00, 0x99, 0x01, 0x00, 0x00, 0xbe, 0xbf, 0xff, 0xff, 0x0c, 0x00, 0x00, 0x00, 0x10, 0x00, 0x00, 0x00, 0x09, 0x00, 0x00, 0x00, 0x01, 0x00, 0x00, 0x00, 0xa2, 0x01, 0x00, 0x00, 0x01, 0x00, 0x00, 0x00, 0xa1, 0x01, 0x00, 0x00, 0xa6, 0xc0, 0xff, 0xff, 0x14, 0x00, 0x00, 0x00, 0x00, 0x00, 0x00, 0x0b, 0x10, 0x00, 0x00, 0x00, 0x14, 0x00, 0x00, 0x00, 0x08, 0x00, 0x00, 0x00, 0x94, 0x11, 0xff, 0xff, 0x01, 0x00, 0x00, 0x00, 0xa1, 0x01, 0x00, 0x00, 0x02, 0x00, 0x00, 0x00, 0x6f, 0x00, 0x00, 0x00, 0xa0, 0x01, 0x00, 0x00, 0xd6, 0xc0, 0xff, 0xff, 0x14, 0x00, 0x00, 0x00, 0x00, 0x00, 0x00, 0x20, 0x18, 0x00, 0x00, 0x00, 0x1c, 0x00, 0x00, 0x00, 0x01, 0x00, 0x00, 0x00, 0x38, 0xca, 0xff, 0xff, 0x01, 0x00, 0x00, 0x00, 0x01, 0x00, 0x00, 0x00, 0x01, 0x00, 0x00, 0x00, 0xa0, 0x01, 0x00, 0x00, 0x04, 0x00, 0x00, 0x00, 0x9a, 0x01, 0x00, 0x00, 0x0f, 0x00, 0x00, 0x00, 0x11, 0x00, 0x00, 0x00, 0x10, 0x00, 0x00, 0x00, 0x16, 0xc1, 0xff, 0xff, 0x14, 0x00, 0x00, 0x00, 0x00, 0x00, 0x00, 0x15, 0x10, 0x00, 0x00, 0x00, 0x14, 0x00, 0x00, 0x00, 0x0a, 0x00, 0x00, 0x00, 0x04, 0x12, 0xff, 0xff, 0x01, 0x00, 0x00, 0x00, 0x9f, 0x01, 0x00, 0x00, 0x02, 0x00, 0x00, 0x00, 0x9d, 0x01, 0x00, 0x00, 0x99, 0x01, 0x00, 0x00, 0x46, 0xc1, 0xff, 0xff, 0x14, 0x00, 0x00, 0x00, 0x00, 0x00, 0x00, 0x1c, 0x10, 0x00, 0x00, 0x00, 0x14, 0x00, 0x00, 0x00, 0x0b, 0x00, 0x00, 0x00, 0x34, 0x12, 0xff, 0xff, 0x01, 0x00, 0x00, 0x00, 0x9e, 0x01, 0x00, 0x00, 0x02, 0x00, 0x00, 0x00, 0x0e, 0x00, 0x00, 0x00, 0x9d, 0x01, 0x00, 0x00, 0xae, 0xc0, 0xff, 0xff, 0x0c, 0x00, 0x00, 0x00, 0x10, 0x00, 0x00, 0x00, 0x09, 0x00, 0x00, 0x00, 0x01, 0x00, 0x00, 0x00, 0x9d, 0x01, 0x00, 0x00, 0x01, 0x00, 0x00, 0x00, 0x9c, 0x01, 0x00, 0x00, 0x96, 0xc1, 0xff, 0xff, 0x14, 0x00, 0x00, 0x00, 0x00, 0x00, 0x00, 0x0b, 0x10, 0x00, 0x00, 0x00, 0x14, 0x00, 0x00, 0x00, 0x08, 0x00, 0x00, 0x00, 0x84, 0x12, 0xff, 0xff, 0x01, 0x00, 0x00, 0x00, 0x9c, 0x01, 0x00, 0x00, 0x02, 0x00, 0x00, 0x00, 0x6e, 0x00, 0x00, 0x00, 0x9b, 0x01, 0x00, 0x00, 0xc6, 0xc1, 0xff, 0xff, 0x14, 0x00, 0x00, 0x00, 0x00, 0x00, 0x00, 0x20, 0x18, 0x00, 0x00, 0x00, 0x1c, 0x00, 0x00, 0x00, 0x01, 0x00, 0x00, 0x00, 0x28, 0xcb, 0xff, 0xff, 0x01, 0x00, 0x00, 0x00, 0x03, 0x00, 0x00, 0x00, 0x01, 0x00, 0x00, 0x00, 0x9b, 0x01, 0x00, 0x00, 0x04, 0x00, 0x00, 0x00, 0x9a, 0x01, 0x00, 0x00, 0x12, 0x00, 0x00, 0x00, 0x0f, 0x00, 0x00, 0x00, 0x10, 0x00, 0x00, 0x00, 0x06, 0xc2, 0xff, 0xff, 0x14, 0x00, 0x00, 0x00, 0x00, 0x00, 0x00, 0x08, 0x10, 0x00, 0x00, 0x00, 0x14, 0x00, 0x00, 0x00, 0x06, 0x00, 0x00, 0x00, 0xf4, 0x12, 0xff, 0xff, 0x01, 0x00, 0x00, 0x00, 0x9a, 0x01, 0x00, 0x00, 0x03, 0x00, 0x00, 0x00, 0x99, 0x01, 0x00, 0x00, 0x07, 0x00, 0x00, 0x00, 0xff, 0xff, 0xff, 0xff, 0x3a, 0xc2, 0xff, 0xff, 0x14, 0x00, 0x00, 0x00, 0x00, 0x00, 0x00, 0x0b, 0x10, 0x00, 0x00, 0x00, 0x14, 0x00, 0x00, 0x00, 0x08, 0x00, 0x00, 0x00, 0x28, 0x13, 0xff, 0xff, 0x01, 0x00, 0x00, 0x00, 0x99, 0x01, 0x00, 0x00, 0x02, 0x00, 0x00, 0x00, 0x90, 0x01, 0x00, 0x00, 0x98, 0x01, 0x00, 0x00, 0x6a, 0xc2, 0xff, 0xff, 0x14, 0x00, 0x00, 0x00, 0x00, 0x00, 0x00, 0x15, 0x10, 0x00, 0x00, 0x00, 0x14, 0x00, 0x00, 0x00, 0x0a, 0x00, 0x00, 0x00, 0x58, 0x13, 0xff, 0xff, 0x01, 0x00, 0x00, 0x00, 0x98, 0x01, 0x00, 0x00, 0x02, 0x00, 0x00, 0x00, 0x8f, 0x01, 0x00, 0x00, 0x97, 0x01, 0x00, 0x00, 0xd2, 0xc1, 0xff, 0xff, 0x0c, 0x00, 0x00, 0x00, 0x10, 0x00, 0x00, 0x00, 0x0c, 0x00, 0x00, 0x00, 0x01, 0x00, 0x00, 0x00, 0x97, 0x01, 0x00, 0x00, 0x01, 0x00, 0x00, 0x00, 0x96, 0x01, 0x00, 0x00, 0xba, 0xc2, 0xff, 0xff, 0x14, 0x00, 0x00, 0x00, 0x00, 0x00, 0x00, 0x0b, 0x10, 0x00, 0x00, 0x00, 0x14, 0x00, 0x00, 0x00, 0x08, 0x00, 0x00, 0x00, 0xa8, 0x13, 0xff, 0xff, 0x01, 0x00, 0x00, 0x00, 0x96, 0x01, 0x00, 0x00, 0x02, 0x00, 0x00, 0x00, 0x6c, 0x00, 0x00, 0x00, 0x95, 0x01, 0x00, 0x00, 0xea, 0xc2, 0xff, 0xff, 0x14, 0x00, 0x00, 0x00, 0x00, 0x00, 0x00, 0x08, 0x10, 0x00, 0x00, 0x00, 0x14, 0x00, 0x00, 0x00, 0x06, 0x00, 0x00, 0x00, 0xd8, 0x13, 0xff, 0xff, 0x01, 0x00, 0x00, 0x00, 0x95, 0x01, 0x00, 0x00, 0x03, 0x00, 0x00, 0x00, 0x94, 0x01, 0x00, 0x00, 0x06, 0x00, 0x00, 0x00, 0xff, 0xff, 0xff, 0xff, 0x1e, 0xc3, 0xff, 0xff, 0x14, 0x00, 0x00, 0x00, 0x00, 0x00, 0x00, 0x15, 0x10, 0x00, 0x00, 0x00, 0x14, 0x00, 0x00, 0x00, 0x0a, 0x00, 0x00, 0x00, 0x0c, 0x14, 0xff, 0xff, 0x01, 0x00, 0x00, 0x00, 0x94, 0x01, 0x00, 0x00, 0x02, 0x00, 0x00, 0x00, 0x93, 0x01, 0x00, 0x00, 0x8a, 0x01, 0x00, 0x00, 0x86, 0xc2, 0xff, 0xff, 0x0c, 0x00, 0x00, 0x00, 0x10, 0x00, 0x00, 0x00, 0x09, 0x00, 0x00, 0x00, 0x01, 0x00, 0x00, 0x00, 0x93, 0x01, 0x00, 0x00, 0x01, 0x00, 0x00, 0x00, 0x92, 0x01, 0x00, 0x00, 0x6e, 0xc3, 0xff, 0xff, 0x14, 0x00, 0x00, 0x00, 0x00, 0x00, 0x00, 0x0b, 0x10, 0x00, 0x00, 0x00, 0x14, 0x00, 0x00, 0x00, 0x08, 0x00, 0x00, 0x00, 0x5c, 0x14, 0xff, 0xff, 0x01, 0x00, 0x00, 0x00, 0x92, 0x01, 0x00, 0x00, 0x02, 0x00, 0x00, 0x00, 0x6b, 0x00, 0x00, 0x00, 0x91, 0x01, 0x00, 0x00, 0x9e, 0xc3, 0xff, 0xff, 0x14, 0x00, 0x00, 0x00, 0x00, 0x00, 0x00, 0x20, 0x18, 0x00, 0x00, 0x00, 0x1c, 0x00, 0x00, 0x00, 0x01, 0x00, 0x00, 0x00, 0x00, 0xcd, 0xff, 0xff, 0x01, 0x00, 0x00, 0x00, 0x01, 0x00, 0x00, 0x00, 0x01, 0x00, 0x00, 0x00, 0x91, 0x01, 0x00, 0x00, 0x04, 0x00, 0x00, 0x00, 0x8b, 0x01, 0x00, 0x00, 0x0f, 0x00, 0x00, 0x00, 0x11, 0x00, 0x00, 0x00, 0x10, 0x00, 0x00, 0x00, 0xde, 0xc3, 0xff, 0xff, 0x14, 0x00, 0x00, 0x00, 0x00, 0x00, 0x00, 0x15, 0x10, 0x00, 0x00, 0x00, 0x14, 0x00, 0x00, 0x00, 0x0a, 0x00, 0x00, 0x00, 0xcc, 0x14, 0xff, 0xff, 0x01, 0x00, 0x00, 0x00, 0x90, 0x01, 0x00, 0x00, 0x02, 0x00, 0x00, 0x00, 0x8e, 0x01, 0x00, 0x00, 0x8a, 0x01, 0x00, 0x00, 0x0e, 0xc4, 0xff, 0xff, 0x14, 0x00, 0x00, 0x00, 0x00, 0x00, 0x00, 0x1c, 0x10, 0x00, 0x00, 0x00, 0x14, 0x00, 0x00, 0x00, 0x0b, 0x00, 0x00, 0x00, 0xfc, 0x14, 0xff, 0xff, 0x01, 0x00, 0x00, 0x00, 0x8f, 0x01, 0x00, 0x00, 0x02, 0x00, 0x00, 0x00, 0x0e, 0x00, 0x00, 0x00, 0x8e, 0x01, 0x00, 0x00, 0x76, 0xc3, 0xff, 0xff, 0x0c, 0x00, 0x00, 0x00, 0x10, 0x00, 0x00, 0x00, 0x09, 0x00, 0x00, 0x00, 0x01, 0x00, 0x00, 0x00, 0x8e, 0x01, 0x00, 0x00, 0x01, 0x00, 0x00, 0x00, 0x8d, 0x01, 0x00, 0x00, 0x5e, 0xc4, 0xff, 0xff, 0x14, 0x00, 0x00, 0x00, 0x00, 0x00, 0x00, 0x0b, 0x10, 0x00, 0x00, 0x00, 0x14, 0x00, 0x00, 0x00, 0x08, 0x00, 0x00, 0x00, 0x4c, 0x15, 0xff, 0xff, 0x01, 0x00, 0x00, 0x00, 0x8d, 0x01, 0x00, 0x00, 0x02, 0x00, 0x00, 0x00, 0x6a, 0x00, 0x00, 0x00, 0x8c, 0x01, 0x00, 0x00, 0x8e, 0xc4, 0xff, 0xff, 0x14, 0x00, 0x00, 0x00, 0x00, 0x00, 0x00, 0x20, 0x18, 0x00, 0x00, 0x00, 0x1c, 0x00, 0x00, 0x00, 0x01, 0x00, 0x00, 0x00, 0xf0, 0xcd, 0xff, 0xff, 0x01, 0x00, 0x00, 0x00, 0x03, 0x00, 0x00, 0x00, 0x01, 0x00, 0x00, 0x00, 0x8c, 0x01, 0x00, 0x00, 0x04, 0x00, 0x00, 0x00, 0x8b, 0x01, 0x00, 0x00, 0x12, 0x00, 0x00, 0x00, 0x0f, 0x00, 0x00, 0x00, 0x10, 0x00, 0x00, 0x00, 0xce, 0xc4, 0xff, 0xff, 0x14, 0x00, 0x00, 0x00, 0x00, 0x00, 0x00, 0x08, 0x10, 0x00, 0x00, 0x00, 0x14, 0x00, 0x00, 0x00, 0x06, 0x00, 0x00, 0x00, 0xbc, 0x15, 0xff, 0xff, 0x01, 0x00, 0x00, 0x00, 0x8b, 0x01, 0x00, 0x00, 0x03, 0x00, 0x00, 0x00, 0x8a, 0x01, 0x00, 0x00, 0x07, 0x00, 0x00, 0x00, 0xff, 0xff, 0xff, 0xff, 0x02, 0xc5, 0xff, 0xff, 0x14, 0x00, 0x00, 0x00, 0x00, 0x00, 0x00, 0x0b, 0x10, 0x00, 0x00, 0x00, 0x14, 0x00, 0x00, 0x00, 0x08, 0x00, 0x00, 0x00, 0xf0, 0x15, 0xff, 0xff, 0x01, 0x00, 0x00, 0x00, 0x8a, 0x01, 0x00, 0x00, 0x02, 0x00, 0x00, 0x00, 0x81, 0x01, 0x00, 0x00, 0x89, 0x01, 0x00, 0x00, 0x32, 0xc5, 0xff, 0xff, 0x14, 0x00, 0x00, 0x00, 0x00, 0x00, 0x00, 0x15, 0x10, 0x00, 0x00, 0x00, 0x14, 0x00, 0x00, 0x00, 0x0a, 0x00, 0x00, 0x00, 0x20, 0x16, 0xff, 0xff, 0x01, 0x00, 0x00, 0x00, 0x89, 0x01, 0x00, 0x00, 0x02, 0x00, 0x00, 0x00, 0x80, 0x01, 0x00, 0x00, 0x88, 0x01, 0x00, 0x00, 0x9a, 0xc4, 0xff, 0xff, 0x0c, 0x00, 0x00, 0x00, 0x10, 0x00, 0x00, 0x00, 0x0c, 0x00, 0x00, 0x00, 0x01, 0x00, 0x00, 0x00, 0x88, 0x01, 0x00, 0x00, 0x01, 0x00, 0x00, 0x00, 0x87, 0x01, 0x00, 0x00, 0x82, 0xc5, 0xff, 0xff, 0x14, 0x00, 0x00, 0x00, 0x00, 0x00, 0x00, 0x0b, 0x10, 0x00, 0x00, 0x00, 0x14, 0x00, 0x00, 0x00, 0x08, 0x00, 0x00, 0x00, 0x70, 0x16, 0xff, 0xff, 0x01, 0x00, 0x00, 0x00, 0x87, 0x01, 0x00, 0x00, 0x02, 0x00, 0x00, 0x00, 0x68, 0x00, 0x00, 0x00, 0x86, 0x01, 0x00, 0x00, 0xb2, 0xc5, 0xff, 0xff, 0x14, 0x00, 0x00, 0x00, 0x00, 0x00, 0x00, 0x08, 0x10, 0x00, 0x00, 0x00, 0x14, 0x00, 0x00, 0x00, 0x06, 0x00, 0x00, 0x00, 0xa0, 0x16, 0xff, 0xff, 0x01, 0x00, 0x00, 0x00, 0x86, 0x01, 0x00, 0x00, 0x03, 0x00, 0x00, 0x00, 0x85, 0x01, 0x00, 0x00, 0x06, 0x00, 0x00, 0x00, 0xff, 0xff, 0xff, 0xff, 0xe6, 0xc5, 0xff, 0xff, 0x14, 0x00, 0x00, 0x00, 0x00, 0x00, 0x00, 0x15, 0x10, 0x00, 0x00, 0x00, 0x14, 0x00, 0x00, 0x00, 0x0a, 0x00, 0x00, 0x00, 0xd4, 0x16, 0xff, 0xff, 0x01, 0x00, 0x00, 0x00, 0x85, 0x01, 0x00, 0x00, 0x02, 0x00, 0x00, 0x00, 0x84, 0x01, 0x00, 0x00, 0x7b, 0x01, 0x00, 0x00, 0x4e, 0xc5, 0xff, 0xff, 0x0c, 0x00, 0x00, 0x00, 0x10, 0x00, 0x00, 0x00, 0x09, 0x00, 0x00, 0x00, 0x01, 0x00, 0x00, 0x00, 0x84, 0x01, 0x00, 0x00, 0x01, 0x00, 0x00, 0x00, 0x83, 0x01, 0x00, 0x00, 0x36, 0xc6, 0xff, 0xff, 0x14, 0x00, 0x00, 0x00, 0x00, 0x00, 0x00, 0x0b, 0x10, 0x00, 0x00, 0x00, 0x14, 0x00, 0x00, 0x00, 0x08, 0x00, 0x00, 0x00, 0x24, 0x17, 0xff, 0xff, 0x01, 0x00, 0x00, 0x00, 0x83, 0x01, 0x00, 0x00, 0x02, 0x00, 0x00, 0x00, 0x67, 0x00, 0x00, 0x00, 0x82, 0x01, 0x00, 0x00, 0x66, 0xc6, 0xff, 0xff, 0x14, 0x00, 0x00, 0x00, 0x00, 0x00, 0x00, 0x20, 0x18, 0x00, 0x00, 0x00, 0x1c, 0x00, 0x00, 0x00, 0x01, 0x00, 0x00, 0x00, 0xc8, 0xcf, 0xff, 0xff, 0x01, 0x00, 0x00, 0x00, 0x01, 0x00, 0x00, 0x00, 0x01, 0x00, 0x00, 0x00, 0x82, 0x01, 0x00, 0x00, 0x04, 0x00, 0x00, 0x00, 0x7c, 0x01, 0x00, 0x00, 0x0f, 0x00, 0x00, 0x00, 0x11, 0x00, 0x00, 0x00, 0x10, 0x00, 0x00, 0x00, 0xa6, 0xc6, 0xff, 0xff, 0x14, 0x00, 0x00, 0x00, 0x00, 0x00, 0x00, 0x15, 0x10, 0x00, 0x00, 0x00, 0x14, 0x00, 0x00, 0x00, 0x0a, 0x00, 0x00, 0x00, 0x94, 0x17, 0xff, 0xff, 0x01, 0x00, 0x00, 0x00, 0x81, 0x01, 0x00, 0x00, 0x02, 0x00, 0x00, 0x00, 0x7f, 0x01, 0x00, 0x00, 0x7b, 0x01, 0x00, 0x00, 0xd6, 0xc6, 0xff, 0xff, 0x14, 0x00, 0x00, 0x00, 0x00, 0x00, 0x00, 0x1c, 0x10, 0x00, 0x00, 0x00, 0x14, 0x00, 0x00, 0x00, 0x0b, 0x00, 0x00, 0x00, 0xc4, 0x17, 0xff, 0xff, 0x01, 0x00, 0x00, 0x00, 0x80, 0x01, 0x00, 0x00, 0x02, 0x00, 0x00, 0x00, 0x0e, 0x00, 0x00, 0x00, 0x7f, 0x01, 0x00, 0x00, 0x3e, 0xc6, 0xff, 0xff, 0x0c, 0x00, 0x00, 0x00, 0x10, 0x00, 0x00, 0x00, 0x09, 0x00, 0x00, 0x00, 0x01, 0x00, 0x00, 0x00, 0x7f, 0x01, 0x00, 0x00, 0x01, 0x00, 0x00, 0x00, 0x7e, 0x01, 0x00, 0x00, 0x26, 0xc7, 0xff, 0xff, 0x14, 0x00, 0x00, 0x00, 0x00, 0x00, 0x00, 0x0b, 0x10, 0x00, 0x00, 0x00, 0x14, 0x00, 0x00, 0x00, 0x08, 0x00, 0x00, 0x00, 0x14, 0x18, 0xff, 0xff, 0x01, 0x00, 0x00, 0x00, 0x7e, 0x01, 0x00, 0x00, 0x02, 0x00, 0x00, 0x00, 0x66, 0x00, 0x00, 0x00, 0x7d, 0x01, 0x00, 0x00, 0x56, 0xc7, 0xff, 0xff, 0x14, 0x00, 0x00, 0x00, 0x00, 0x00, 0x00, 0x20, 0x18, 0x00, 0x00, 0x00, 0x1c, 0x00, 0x00, 0x00, 0x01, 0x00, 0x00, 0x00, 0xb8, 0xd0, 0xff, 0xff, 0x01, 0x00, 0x00, 0x00, 0x03, 0x00, 0x00, 0x00, 0x01, 0x00, 0x00, 0x00, 0x7d, 0x01, 0x00, 0x00, 0x04, 0x00, 0x00, 0x00, 0x7c, 0x01, 0x00, 0x00, 0x12, 0x00, 0x00, 0x00, 0x0f, 0x00, 0x00, 0x00, 0x10, 0x00, 0x00, 0x00, 0x96, 0xc7, 0xff, 0xff, 0x14, 0x00, 0x00, 0x00, 0x00, 0x00, 0x00, 0x08, 0x10, 0x00, 0x00, 0x00, 0x14, 0x00, 0x00, 0x00, 0x06, 0x00, 0x00, 0x00, 0x84, 0x18, 0xff, 0xff, 0x01, 0x00, 0x00, 0x00, 0x7c, 0x01, 0x00, 0x00, 0x03, 0x00, 0x00, 0x00, 0x7b, 0x01, 0x00, 0x00, 0x07, 0x00, 0x00, 0x00, 0xff, 0xff, 0xff, 0xff, 0xca, 0xc7, 0xff, 0xff, 0x14, 0x00, 0x00, 0x00, 0x00, 0x00, 0x00, 0x0b, 0x10, 0x00, 0x00, 0x00, 0x14, 0x00, 0x00, 0x00, 0x08, 0x00, 0x00, 0x00, 0xb8, 0x18, 0xff, 0xff, 0x01, 0x00, 0x00, 0x00, 0x7b, 0x01, 0x00, 0x00, 0x02, 0x00, 0x00, 0x00, 0x72, 0x01, 0x00, 0x00, 0x7a, 0x01, 0x00, 0x00, 0xfa, 0xc7, 0xff, 0xff, 0x14, 0x00, 0x00, 0x00, 0x00, 0x00, 0x00, 0x15, 0x10, 0x00, 0x00, 0x00, 0x14, 0x00, 0x00, 0x00, 0x0a, 0x00, 0x00, 0x00, 0xe8, 0x18, 0xff, 0xff, 0x01, 0x00, 0x00, 0x00, 0x7a, 0x01, 0x00, 0x00, 0x02, 0x00, 0x00, 0x00, 0x71, 0x01, 0x00, 0x00, 0x79, 0x01, 0x00, 0x00, 0x62, 0xc7, 0xff, 0xff, 0x0c, 0x00, 0x00, 0x00, 0x10, 0x00, 0x00, 0x00, 0x0c, 0x00, 0x00, 0x00, 0x01, 0x00, 0x00, 0x00, 0x79, 0x01, 0x00, 0x00, 0x01, 0x00, 0x00, 0x00, 0x78, 0x01, 0x00, 0x00, 0x4a, 0xc8, 0xff, 0xff, 0x14, 0x00, 0x00, 0x00, 0x00, 0x00, 0x00, 0x0b, 0x10, 0x00, 0x00, 0x00, 0x14, 0x00, 0x00, 0x00, 0x08, 0x00, 0x00, 0x00, 0x38, 0x19, 0xff, 0xff, 0x01, 0x00, 0x00, 0x00, 0x78, 0x01, 0x00, 0x00, 0x02, 0x00, 0x00, 0x00, 0x64, 0x00, 0x00, 0x00, 0x77, 0x01, 0x00, 0x00, 0x7a, 0xc8, 0xff, 0xff, 0x14, 0x00, 0x00, 0x00, 0x00, 0x00, 0x00, 0x08, 0x10, 0x00, 0x00, 0x00, 0x14, 0x00, 0x00, 0x00, 0x06, 0x00, 0x00, 0x00, 0x68, 0x19, 0xff, 0xff, 0x01, 0x00, 0x00, 0x00, 0x77, 0x01, 0x00, 0x00, 0x03, 0x00, 0x00, 0x00, 0x76, 0x01, 0x00, 0x00, 0x06, 0x00, 0x00, 0x00, 0xff, 0xff, 0xff, 0xff, 0xae, 0xc8, 0xff, 0xff, 0x14, 0x00, 0x00, 0x00, 0x00, 0x00, 0x00, 0x15, 0x10, 0x00, 0x00, 0x00, 0x14, 0x00, 0x00, 0x00, 0x0a, 0x00, 0x00, 0x00, 0x9c, 0x19, 0xff, 0xff, 0x01, 0x00, 0x00, 0x00, 0x76, 0x01, 0x00, 0x00, 0x02, 0x00, 0x00, 0x00, 0x75, 0x01, 0x00, 0x00, 0x6c, 0x01, 0x00, 0x00, 0x16, 0xc8, 0xff, 0xff, 0x0c, 0x00, 0x00, 0x00, 0x10, 0x00, 0x00, 0x00, 0x09, 0x00, 0x00, 0x00, 0x01, 0x00, 0x00, 0x00, 0x75, 0x01, 0x00, 0x00, 0x01, 0x00, 0x00, 0x00, 0x74, 0x01, 0x00, 0x00, 0xfe, 0xc8, 0xff, 0xff, 0x14, 0x00, 0x00, 0x00, 0x00, 0x00, 0x00, 0x0b, 0x10, 0x00, 0x00, 0x00, 0x14, 0x00, 0x00, 0x00, 0x08, 0x00, 0x00, 0x00, 0xec, 0x19, 0xff, 0xff, 0x01, 0x00, 0x00, 0x00, 0x74, 0x01, 0x00, 0x00, 0x02, 0x00, 0x00, 0x00, 0x63, 0x00, 0x00, 0x00, 0x73, 0x01, 0x00, 0x00, 0x2e, 0xc9, 0xff, 0xff, 0x14, 0x00, 0x00, 0x00, 0x00, 0x00, 0x00, 0x20, 0x18, 0x00, 0x00, 0x00, 0x1c, 0x00, 0x00, 0x00, 0x01, 0x00, 0x00, 0x00, 0x90, 0xd2, 0xff, 0xff, 0x01, 0x00, 0x00, 0x00, 0x01, 0x00, 0x00, 0x00, 0x01, 0x00, 0x00, 0x00, 0x73, 0x01, 0x00, 0x00, 0x04, 0x00, 0x00, 0x00, 0x6d, 0x01, 0x00, 0x00, 0x0f, 0x00, 0x00, 0x00, 0x11, 0x00, 0x00, 0x00, 0x10, 0x00, 0x00, 0x00, 0x6e, 0xc9, 0xff, 0xff, 0x14, 0x00, 0x00, 0x00, 0x00, 0x00, 0x00, 0x15, 0x10, 0x00, 0x00, 0x00, 0x14, 0x00, 0x00, 0x00, 0x0a, 0x00, 0x00, 0x00, 0x5c, 0x1a, 0xff, 0xff, 0x01, 0x00, 0x00, 0x00, 0x72, 0x01, 0x00, 0x00, 0x02, 0x00, 0x00, 0x00, 0x70, 0x01, 0x00, 0x00, 0x6c, 0x01, 0x00, 0x00, 0x9e, 0xc9, 0xff, 0xff, 0x14, 0x00, 0x00, 0x00, 0x00, 0x00, 0x00, 0x1c, 0x10, 0x00, 0x00, 0x00, 0x14, 0x00, 0x00, 0x00, 0x0b, 0x00, 0x00, 0x00, 0x8c, 0x1a, 0xff, 0xff, 0x01, 0x00, 0x00, 0x00, 0x71, 0x01, 0x00, 0x00, 0x02, 0x00, 0x00, 0x00, 0x0e, 0x00, 0x00, 0x00, 0x70, 0x01, 0x00, 0x00, 0x06, 0xc9, 0xff, 0xff, 0x0c, 0x00, 0x00, 0x00, 0x10, 0x00, 0x00, 0x00, 0x09, 0x00, 0x00, 0x00, 0x01, 0x00, 0x00, 0x00, 0x70, 0x01, 0x00, 0x00, 0x01, 0x00, 0x00, 0x00, 0x6f, 0x01, 0x00, 0x00, 0xee, 0xc9, 0xff, 0xff, 0x14, 0x00, 0x00, 0x00, 0x00, 0x00, 0x00, 0x0b, 0x10, 0x00, 0x00, 0x00, 0x14, 0x00, 0x00, 0x00, 0x08, 0x00, 0x00, 0x00, 0xdc, 0x1a, 0xff, 0xff, 0x01, 0x00, 0x00, 0x00, 0x6f, 0x01, 0x00, 0x00, 0x02, 0x00, 0x00, 0x00, 0x62, 0x00, 0x00, 0x00, 0x6e, 0x01, 0x00, 0x00, 0x1e, 0xca, 0xff, 0xff, 0x14, 0x00, 0x00, 0x00, 0x00, 0x00, 0x00, 0x20, 0x18, 0x00, 0x00, 0x00, 0x1c, 0x00, 0x00, 0x00, 0x01, 0x00, 0x00, 0x00, 0x80, 0xd3, 0xff, 0xff, 0x01, 0x00, 0x00, 0x00, 0x03, 0x00, 0x00, 0x00, 0x01, 0x00, 0x00, 0x00, 0x6e, 0x01, 0x00, 0x00, 0x04, 0x00, 0x00, 0x00, 0x6d, 0x01, 0x00, 0x00, 0x12, 0x00, 0x00, 0x00, 0x0f, 0x00, 0x00, 0x00, 0x10, 0x00, 0x00, 0x00, 0x5e, 0xca, 0xff, 0xff, 0x14, 0x00, 0x00, 0x00, 0x00, 0x00, 0x00, 0x08, 0x10, 0x00, 0x00, 0x00, 0x14, 0x00, 0x00, 0x00, 0x06, 0x00, 0x00, 0x00, 0x4c, 0x1b, 0xff, 0xff, 0x01, 0x00, 0x00, 0x00, 0x6d, 0x01, 0x00, 0x00, 0x03, 0x00, 0x00, 0x00, 0x6c, 0x01, 0x00, 0x00, 0x07, 0x00, 0x00, 0x00, 0xff, 0xff, 0xff, 0xff, 0x92, 0xca, 0xff, 0xff, 0x14, 0x00, 0x00, 0x00, 0x00, 0x00, 0x00, 0x0b, 0x10, 0x00, 0x00, 0x00, 0x14, 0x00, 0x00, 0x00, 0x08, 0x00, 0x00, 0x00, 0x80, 0x1b, 0xff, 0xff, 0x01, 0x00, 0x00, 0x00, 0x6c, 0x01, 0x00, 0x00, 0x02, 0x00, 0x00, 0x00, 0x63, 0x01, 0x00, 0x00, 0x6b, 0x01, 0x00, 0x00, 0xc2, 0xca, 0xff, 0xff, 0x14, 0x00, 0x00, 0x00, 0x00, 0x00, 0x00, 0x15, 0x10, 0x00, 0x00, 0x00, 0x14, 0x00, 0x00, 0x00, 0x0a, 0x00, 0x00, 0x00, 0xb0, 0x1b, 0xff, 0xff, 0x01, 0x00, 0x00, 0x00, 0x6b, 0x01, 0x00, 0x00, 0x02, 0x00, 0x00, 0x00, 0x62, 0x01, 0x00, 0x00, 0x6a, 0x01, 0x00, 0x00, 0x2a, 0xca, 0xff, 0xff, 0x0c, 0x00, 0x00, 0x00, 0x10, 0x00, 0x00, 0x00, 0x0c, 0x00, 0x00, 0x00, 0x01, 0x00, 0x00, 0x00, 0x6a, 0x01, 0x00, 0x00, 0x01, 0x00, 0x00, 0x00, 0x69, 0x01, 0x00, 0x00, 0x12, 0xcb, 0xff, 0xff, 0x14, 0x00, 0x00, 0x00, 0x00, 0x00, 0x00, 0x0b, 0x10, 0x00, 0x00, 0x00, 0x14, 0x00, 0x00, 0x00, 0x08, 0x00, 0x00, 0x00, 0x00, 0x1c, 0xff, 0xff, 0x01, 0x00, 0x00, 0x00, 0x69, 0x01, 0x00, 0x00, 0x02, 0x00, 0x00, 0x00, 0x60, 0x00, 0x00, 0x00, 0x68, 0x01, 0x00, 0x00, 0x42, 0xcb, 0xff, 0xff, 0x14, 0x00, 0x00, 0x00, 0x00, 0x00, 0x00, 0x08, 0x10, 0x00, 0x00, 0x00, 0x14, 0x00, 0x00, 0x00, 0x06, 0x00, 0x00, 0x00, 0x30, 0x1c, 0xff, 0xff, 0x01, 0x00, 0x00, 0x00, 0x68, 0x01, 0x00, 0x00, 0x03, 0x00, 0x00, 0x00, 0x67, 0x01, 0x00, 0x00, 0x06, 0x00, 0x00, 0x00, 0xff, 0xff, 0xff, 0xff, 0x76, 0xcb, 0xff, 0xff, 0x14, 0x00, 0x00, 0x00, 0x00, 0x00, 0x00, 0x15, 0x10, 0x00, 0x00, 0x00, 0x14, 0x00, 0x00, 0x00, 0x0a, 0x00, 0x00, 0x00, 0x64, 0x1c, 0xff, 0xff, 0x01, 0x00, 0x00, 0x00, 0x67, 0x01, 0x00, 0x00, 0x02, 0x00, 0x00, 0x00, 0x66, 0x01, 0x00, 0x00, 0x5d, 0x01, 0x00, 0x00, 0xde, 0xca, 0xff, 0xff, 0x0c, 0x00, 0x00, 0x00, 0x10, 0x00, 0x00, 0x00, 0x09, 0x00, 0x00, 0x00, 0x01, 0x00, 0x00, 0x00, 0x66, 0x01, 0x00, 0x00, 0x01, 0x00, 0x00, 0x00, 0x65, 0x01, 0x00, 0x00, 0xc6, 0xcb, 0xff, 0xff, 0x14, 0x00, 0x00, 0x00, 0x00, 0x00, 0x00, 0x0b, 0x10, 0x00, 0x00, 0x00, 0x14, 0x00, 0x00, 0x00, 0x08, 0x00, 0x00, 0x00, 0xb4, 0x1c, 0xff, 0xff, 0x01, 0x00, 0x00, 0x00, 0x65, 0x01, 0x00, 0x00, 0x02, 0x00, 0x00, 0x00, 0x5f, 0x00, 0x00, 0x00, 0x64, 0x01, 0x00, 0x00, 0xf6, 0xcb, 0xff, 0xff, 0x14, 0x00, 0x00, 0x00, 0x00, 0x00, 0x00, 0x20, 0x18, 0x00, 0x00, 0x00, 0x1c, 0x00, 0x00, 0x00, 0x01, 0x00, 0x00, 0x00, 0x58, 0xd5, 0xff, 0xff, 0x01, 0x00, 0x00, 0x00, 0x01, 0x00, 0x00, 0x00, 0x01, 0x00, 0x00, 0x00, 0x64, 0x01, 0x00, 0x00, 0x04, 0x00, 0x00, 0x00, 0x5e, 0x01, 0x00, 0x00, 0x0f, 0x00, 0x00, 0x00, 0x11, 0x00, 0x00, 0x00, 0x10, 0x00, 0x00, 0x00, 0x36, 0xcc, 0xff, 0xff, 0x14, 0x00, 0x00, 0x00, 0x00, 0x00, 0x00, 0x15, 0x10, 0x00, 0x00, 0x00, 0x14, 0x00, 0x00, 0x00, 0x0a, 0x00, 0x00, 0x00, 0x24, 0x1d, 0xff, 0xff, 0x01, 0x00, 0x00, 0x00, 0x63, 0x01, 0x00, 0x00, 0x02, 0x00, 0x00, 0x00, 0x61, 0x01, 0x00, 0x00, 0x5d, 0x01, 0x00, 0x00, 0x66, 0xcc, 0xff, 0xff, 0x14, 0x00, 0x00, 0x00, 0x00, 0x00, 0x00, 0x1c, 0x10, 0x00, 0x00, 0x00, 0x14, 0x00, 0x00, 0x00, 0x0b, 0x00, 0x00, 0x00, 0x54, 0x1d, 0xff, 0xff, 0x01, 0x00, 0x00, 0x00, 0x62, 0x01, 0x00, 0x00, 0x02, 0x00, 0x00, 0x00, 0x0e, 0x00, 0x00, 0x00, 0x61, 0x01, 0x00, 0x00, 0xce, 0xcb, 0xff, 0xff, 0x0c, 0x00, 0x00, 0x00, 0x10, 0x00, 0x00, 0x00, 0x09, 0x00, 0x00, 0x00, 0x01, 0x00, 0x00, 0x00, 0x61, 0x01, 0x00, 0x00, 0x01, 0x00, 0x00, 0x00, 0x60, 0x01, 0x00, 0x00, 0xb6, 0xcc, 0xff, 0xff, 0x14, 0x00, 0x00, 0x00, 0x00, 0x00, 0x00, 0x0b, 0x10, 0x00, 0x00, 0x00, 0x14, 0x00, 0x00, 0x00, 0x08, 0x00, 0x00, 0x00, 0xa4, 0x1d, 0xff, 0xff, 0x01, 0x00, 0x00, 0x00, 0x60, 0x01, 0x00, 0x00, 0x02, 0x00, 0x00, 0x00, 0x5e, 0x00, 0x00, 0x00, 0x5f, 0x01, 0x00, 0x00, 0xe6, 0xcc, 0xff, 0xff, 0x14, 0x00, 0x00, 0x00, 0x00, 0x00, 0x00, 0x20, 0x18, 0x00, 0x00, 0x00, 0x1c, 0x00, 0x00, 0x00, 0x01, 0x00, 0x00, 0x00, 0x48, 0xd6, 0xff, 0xff, 0x01, 0x00, 0x00, 0x00, 0x03, 0x00, 0x00, 0x00, 0x01, 0x00, 0x00, 0x00, 0x5f, 0x01, 0x00, 0x00, 0x04, 0x00, 0x00, 0x00, 0x5e, 0x01, 0x00, 0x00, 0x12, 0x00, 0x00, 0x00, 0x0f, 0x00, 0x00, 0x00, 0x10, 0x00, 0x00, 0x00, 0x26, 0xcd, 0xff, 0xff, 0x14, 0x00, 0x00, 0x00, 0x00, 0x00, 0x00, 0x08, 0x10, 0x00, 0x00, 0x00, 0x14, 0x00, 0x00, 0x00, 0x06, 0x00, 0x00, 0x00, 0x14, 0x1e, 0xff, 0xff, 0x01, 0x00, 0x00, 0x00, 0x5e, 0x01, 0x00, 0x00, 0x03, 0x00, 0x00, 0x00, 0x5d, 0x01, 0x00, 0x00, 0x07, 0x00, 0x00, 0x00, 0xff, 0xff, 0xff, 0xff, 0x5a, 0xcd, 0xff, 0xff, 0x14, 0x00, 0x00, 0x00, 0x00, 0x00, 0x00, 0x0b, 0x10, 0x00, 0x00, 0x00, 0x14, 0x00, 0x00, 0x00, 0x08, 0x00, 0x00, 0x00, 0x48, 0x1e, 0xff, 0xff, 0x01, 0x00, 0x00, 0x00, 0x5d, 0x01, 0x00, 0x00, 0x02, 0x00, 0x00, 0x00, 0x54, 0x01, 0x00, 0x00, 0x5c, 0x01, 0x00, 0x00, 0x8a, 0xcd, 0xff, 0xff, 0x14, 0x00, 0x00, 0x00, 0x00, 0x00, 0x00, 0x15, 0x10, 0x00, 0x00, 0x00, 0x14, 0x00, 0x00, 0x00, 0x0a, 0x00, 0x00, 0x00, 0x78, 0x1e, 0xff, 0xff, 0x01, 0x00, 0x00, 0x00, 0x5c, 0x01, 0x00, 0x00, 0x02, 0x00, 0x00, 0x00, 0x53, 0x01, 0x00, 0x00, 0x5b, 0x01, 0x00, 0x00, 0xf2, 0xcc, 0xff, 0xff, 0x0c, 0x00, 0x00, 0x00, 0x10, 0x00, 0x00, 0x00, 0x0c, 0x00, 0x00, 0x00, 0x01, 0x00, 0x00, 0x00, 0x5b, 0x01, 0x00, 0x00, 0x01, 0x00, 0x00, 0x00, 0x5a, 0x01, 0x00, 0x00, 0xda, 0xcd, 0xff, 0xff, 0x14, 0x00, 0x00, 0x00, 0x00, 0x00, 0x00, 0x0b, 0x10, 0x00, 0x00, 0x00, 0x14, 0x00, 0x00, 0x00, 0x08, 0x00, 0x00, 0x00, 0xc8, 0x1e, 0xff, 0xff, 0x01, 0x00, 0x00, 0x00, 0x5a, 0x01, 0x00, 0x00, 0x02, 0x00, 0x00, 0x00, 0x58, 0x00, 0x00, 0x00, 0x59, 0x01, 0x00, 0x00, 0x0a, 0xce, 0xff, 0xff, 0x14, 0x00, 0x00, 0x00, 0x00, 0x00, 0x00, 0x08, 0x10, 0x00, 0x00, 0x00, 0x14, 0x00, 0x00, 0x00, 0x06, 0x00, 0x00, 0x00, 0xf8, 0x1e, 0xff, 0xff, 0x01, 0x00, 0x00, 0x00, 0x59, 0x01, 0x00, 0x00, 0x03, 0x00, 0x00, 0x00, 0x58, 0x01, 0x00, 0x00, 0x06, 0x00, 0x00, 0x00, 0xff, 0xff, 0xff, 0xff, 0x3e, 0xce, 0xff, 0xff, 0x14, 0x00, 0x00, 0x00, 0x00, 0x00, 0x00, 0x15, 0x10, 0x00, 0x00, 0x00, 0x14, 0x00, 0x00, 0x00, 0x0a, 0x00, 0x00, 0x00, 0x2c, 0x1f, 0xff, 0xff, 0x01, 0x00, 0x00, 0x00, 0x58, 0x01, 0x00, 0x00, 0x02, 0x00, 0x00, 0x00, 0x57, 0x01, 0x00, 0x00, 0x4e, 0x01, 0x00, 0x00, 0xa6, 0xcd, 0xff, 0xff, 0x0c, 0x00, 0x00, 0x00, 0x10, 0x00, 0x00, 0x00, 0x09, 0x00, 0x00, 0x00, 0x01, 0x00, 0x00, 0x00, 0x57, 0x01, 0x00, 0x00, 0x01, 0x00, 0x00, 0x00, 0x56, 0x01, 0x00, 0x00, 0x8e, 0xce, 0xff, 0xff, 0x14, 0x00, 0x00, 0x00, 0x00, 0x00, 0x00, 0x0b, 0x10, 0x00, 0x00, 0x00, 0x14, 0x00, 0x00, 0x00, 0x08, 0x00, 0x00, 0x00, 0x7c, 0x1f, 0xff, 0xff, 0x01, 0x00, 0x00, 0x00, 0x56, 0x01, 0x00, 0x00, 0x02, 0x00, 0x00, 0x00, 0x57, 0x00, 0x00, 0x00, 0x55, 0x01, 0x00, 0x00, 0xbe, 0xce, 0xff, 0xff, 0x14, 0x00, 0x00, 0x00, 0x00, 0x00, 0x00, 0x20, 0x18, 0x00, 0x00, 0x00, 0x1c, 0x00, 0x00, 0x00, 0x01, 0x00, 0x00, 0x00, 0x20, 0xd8, 0xff, 0xff, 0x01, 0x00, 0x00, 0x00, 0x01, 0x00, 0x00, 0x00, 0x01, 0x00, 0x00, 0x00, 0x55, 0x01, 0x00, 0x00, 0x04, 0x00, 0x00, 0x00, 0x4f, 0x01, 0x00, 0x00, 0x0f, 0x00, 0x00, 0x00, 0x11, 0x00, 0x00, 0x00, 0x10, 0x00, 0x00, 0x00, 0xfe, 0xce, 0xff, 0xff, 0x14, 0x00, 0x00, 0x00, 0x00, 0x00, 0x00, 0x15, 0x10, 0x00, 0x00, 0x00, 0x14, 0x00, 0x00, 0x00, 0x0a, 0x00, 0x00, 0x00, 0xec, 0x1f, 0xff, 0xff, 0x01, 0x00, 0x00, 0x00, 0x54, 0x01, 0x00, 0x00, 0x02, 0x00, 0x00, 0x00, 0x52, 0x01, 0x00, 0x00, 0x4e, 0x01, 0x00, 0x00, 0x2e, 0xcf, 0xff, 0xff, 0x14, 0x00, 0x00, 0x00, 0x00, 0x00, 0x00, 0x1c, 0x10, 0x00, 0x00, 0x00, 0x14, 0x00, 0x00, 0x00, 0x0b, 0x00, 0x00, 0x00, 0x1c, 0x20, 0xff, 0xff, 0x01, 0x00, 0x00, 0x00, 0x53, 0x01, 0x00, 0x00, 0x02, 0x00, 0x00, 0x00, 0x0e, 0x00, 0x00, 0x00, 0x52, 0x01, 0x00, 0x00, 0x96, 0xce, 0xff, 0xff, 0x0c, 0x00, 0x00, 0x00, 0x10, 0x00, 0x00, 0x00, 0x09, 0x00, 0x00, 0x00, 0x01, 0x00, 0x00, 0x00, 0x52, 0x01, 0x00, 0x00, 0x01, 0x00, 0x00, 0x00, 0x51, 0x01, 0x00, 0x00, 0x7e, 0xcf, 0xff, 0xff, 0x14, 0x00, 0x00, 0x00, 0x00, 0x00, 0x00, 0x0b, 0x10, 0x00, 0x00, 0x00, 0x14, 0x00, 0x00, 0x00, 0x08, 0x00, 0x00, 0x00, 0x6c, 0x20, 0xff, 0xff, 0x01, 0x00, 0x00, 0x00, 0x51, 0x01, 0x00, 0x00, 0x02, 0x00, 0x00, 0x00, 0x56, 0x00, 0x00, 0x00, 0x50, 0x01, 0x00, 0x00, 0xae, 0xcf, 0xff, 0xff, 0x14, 0x00, 0x00, 0x00, 0x00, 0x00, 0x00, 0x20, 0x18, 0x00, 0x00, 0x00, 0x1c, 0x00, 0x00, 0x00, 0x01, 0x00, 0x00, 0x00, 0x10, 0xd9, 0xff, 0xff, 0x01, 0x00, 0x00, 0x00, 0x03, 0x00, 0x00, 0x00, 0x01, 0x00, 0x00, 0x00, 0x50, 0x01, 0x00, 0x00, 0x04, 0x00, 0x00, 0x00, 0x4f, 0x01, 0x00, 0x00, 0x12, 0x00, 0x00, 0x00, 0x0f, 0x00, 0x00, 0x00, 0x10, 0x00, 0x00, 0x00, 0xee, 0xcf, 0xff, 0xff, 0x14, 0x00, 0x00, 0x00, 0x00, 0x00, 0x00, 0x08, 0x10, 0x00, 0x00, 0x00, 0x14, 0x00, 0x00, 0x00, 0x06, 0x00, 0x00, 0x00, 0xdc, 0x20, 0xff, 0xff, 0x01, 0x00, 0x00, 0x00, 0x4f, 0x01, 0x00, 0x00, 0x03, 0x00, 0x00, 0x00, 0x4e, 0x01, 0x00, 0x00, 0x07, 0x00, 0x00, 0x00, 0xff, 0xff, 0xff, 0xff, 0x22, 0xd0, 0xff, 0xff, 0x14, 0x00, 0x00, 0x00, 0x00, 0x00, 0x00, 0x0b, 0x10, 0x00, 0x00, 0x00, 0x14, 0x00, 0x00, 0x00, 0x08, 0x00, 0x00, 0x00, 0x10, 0x21, 0xff, 0xff, 0x01, 0x00, 0x00, 0x00, 0x4e, 0x01, 0x00, 0x00, 0x02, 0x00, 0x00, 0x00, 0x45, 0x01, 0x00, 0x00, 0x4d, 0x01, 0x00, 0x00, 0x52, 0xd0, 0xff, 0xff, 0x14, 0x00, 0x00, 0x00, 0x00, 0x00, 0x00, 0x15, 0x10, 0x00, 0x00, 0x00, 0x14, 0x00, 0x00, 0x00, 0x0a, 0x00, 0x00, 0x00, 0x40, 0x21, 0xff, 0xff, 0x01, 0x00, 0x00, 0x00, 0x4d, 0x01, 0x00, 0x00, 0x02, 0x00, 0x00, 0x00, 0x44, 0x01, 0x00, 0x00, 0x4c, 0x01, 0x00, 0x00, 0xba, 0xcf, 0xff, 0xff, 0x0c, 0x00, 0x00, 0x00, 0x10, 0x00, 0x00, 0x00, 0x0c, 0x00, 0x00, 0x00, 0x01, 0x00, 0x00, 0x00, 0x4c, 0x01, 0x00, 0x00, 0x01, 0x00, 0x00, 0x00, 0x4b, 0x01, 0x00, 0x00, 0xa2, 0xd0, 0xff, 0xff, 0x14, 0x00, 0x00, 0x00, 0x00, 0x00, 0x00, 0x0b, 0x10, 0x00, 0x00, 0x00, 0x14, 0x00, 0x00, 0x00, 0x08, 0x00, 0x00, 0x00, 0x90, 0x21, 0xff, 0xff, 0x01, 0x00, 0x00, 0x00, 0x4b, 0x01, 0x00, 0x00, 0x02, 0x00, 0x00, 0x00, 0x54, 0x00, 0x00, 0x00, 0x4a, 0x01, 0x00, 0x00, 0xd2, 0xd0, 0xff, 0xff, 0x14, 0x00, 0x00, 0x00, 0x00, 0x00, 0x00, 0x08, 0x10, 0x00, 0x00, 0x00, 0x14, 0x00, 0x00, 0x00, 0x06, 0x00, 0x00, 0x00, 0xc0, 0x21, 0xff, 0xff, 0x01, 0x00, 0x00, 0x00, 0x4a, 0x01, 0x00, 0x00, 0x03, 0x00, 0x00, 0x00, 0x49, 0x01, 0x00, 0x00, 0x06, 0x00, 0x00, 0x00, 0xff, 0xff, 0xff, 0xff, 0x06, 0xd1, 0xff, 0xff, 0x14, 0x00, 0x00, 0x00, 0x00, 0x00, 0x00, 0x15, 0x10, 0x00, 0x00, 0x00, 0x14, 0x00, 0x00, 0x00, 0x0a, 0x00, 0x00, 0x00, 0xf4, 0x21, 0xff, 0xff, 0x01, 0x00, 0x00, 0x00, 0x49, 0x01, 0x00, 0x00, 0x02, 0x00, 0x00, 0x00, 0x48, 0x01, 0x00, 0x00, 0x3f, 0x01, 0x00, 0x00, 0x6e, 0xd0, 0xff, 0xff, 0x0c, 0x00, 0x00, 0x00, 0x10, 0x00, 0x00, 0x00, 0x09, 0x00, 0x00, 0x00, 0x01, 0x00, 0x00, 0x00, 0x48, 0x01, 0x00, 0x00, 0x01, 0x00, 0x00, 0x00, 0x47, 0x01, 0x00, 0x00, 0x56, 0xd1, 0xff, 0xff, 0x14, 0x00, 0x00, 0x00, 0x00, 0x00, 0x00, 0x0b, 0x10, 0x00, 0x00, 0x00, 0x14, 0x00, 0x00, 0x00, 0x08, 0x00, 0x00, 0x00, 0x44, 0x22, 0xff, 0xff, 0x01, 0x00, 0x00, 0x00, 0x47, 0x01, 0x00, 0x00, 0x02, 0x00, 0x00, 0x00, 0x53, 0x00, 0x00, 0x00, 0x46, 0x01, 0x00, 0x00, 0x86, 0xd1, 0xff, 0xff, 0x14, 0x00, 0x00, 0x00, 0x00, 0x00, 0x00, 0x20, 0x18, 0x00, 0x00, 0x00, 0x1c, 0x00, 0x00, 0x00, 0x01, 0x00, 0x00, 0x00, 0xe8, 0xda, 0xff, 0xff, 0x01, 0x00, 0x00, 0x00, 0x01, 0x00, 0x00, 0x00, 0x01, 0x00, 0x00, 0x00, 0x46, 0x01, 0x00, 0x00, 0x04, 0x00, 0x00, 0x00, 0x40, 0x01, 0x00, 0x00, 0x0f, 0x00, 0x00, 0x00, 0x11, 0x00, 0x00, 0x00, 0x10, 0x00, 0x00, 0x00, 0xc6, 0xd1, 0xff, 0xff, 0x14, 0x00, 0x00, 0x00, 0x00, 0x00, 0x00, 0x15, 0x10, 0x00, 0x00, 0x00, 0x14, 0x00, 0x00, 0x00, 0x0a, 0x00, 0x00, 0x00, 0xb4, 0x22, 0xff, 0xff, 0x01, 0x00, 0x00, 0x00, 0x45, 0x01, 0x00, 0x00, 0x02, 0x00, 0x00, 0x00, 0x43, 0x01, 0x00, 0x00, 0x3f, 0x01, 0x00, 0x00, 0xf6, 0xd1, 0xff, 0xff, 0x14, 0x00, 0x00, 0x00, 0x00, 0x00, 0x00, 0x1c, 0x10, 0x00, 0x00, 0x00, 0x14, 0x00, 0x00, 0x00, 0x0b, 0x00, 0x00, 0x00, 0xe4, 0x22, 0xff, 0xff, 0x01, 0x00, 0x00, 0x00, 0x44, 0x01, 0x00, 0x00, 0x02, 0x00, 0x00, 0x00, 0x0e, 0x00, 0x00, 0x00, 0x43, 0x01, 0x00, 0x00, 0x5e, 0xd1, 0xff, 0xff, 0x0c, 0x00, 0x00, 0x00, 0x10, 0x00, 0x00, 0x00, 0x09, 0x00, 0x00, 0x00, 0x01, 0x00, 0x00, 0x00, 0x43, 0x01, 0x00, 0x00, 0x01, 0x00, 0x00, 0x00, 0x42, 0x01, 0x00, 0x00, 0x46, 0xd2, 0xff, 0xff, 0x14, 0x00, 0x00, 0x00, 0x00, 0x00, 0x00, 0x0b, 0x10, 0x00, 0x00, 0x00, 0x14, 0x00, 0x00, 0x00, 0x08, 0x00, 0x00, 0x00, 0x34, 0x23, 0xff, 0xff, 0x01, 0x00, 0x00, 0x00, 0x42, 0x01, 0x00, 0x00, 0x02, 0x00, 0x00, 0x00, 0x52, 0x00, 0x00, 0x00, 0x41, 0x01, 0x00, 0x00, 0x76, 0xd2, 0xff, 0xff, 0x14, 0x00, 0x00, 0x00, 0x00, 0x00, 0x00, 0x20, 0x18, 0x00, 0x00, 0x00, 0x1c, 0x00, 0x00, 0x00, 0x01, 0x00, 0x00, 0x00, 0xd8, 0xdb, 0xff, 0xff, 0x01, 0x00, 0x00, 0x00, 0x03, 0x00, 0x00, 0x00, 0x01, 0x00, 0x00, 0x00, 0x41, 0x01, 0x00, 0x00, 0x04, 0x00, 0x00, 0x00, 0x40, 0x01, 0x00, 0x00, 0x12, 0x00, 0x00, 0x00, 0x0f, 0x00, 0x00, 0x00, 0x10, 0x00, 0x00, 0x00, 0xb6, 0xd2, 0xff, 0xff, 0x14, 0x00, 0x00, 0x00, 0x00, 0x00, 0x00, 0x08, 0x10, 0x00, 0x00, 0x00, 0x14, 0x00, 0x00, 0x00, 0x06, 0x00, 0x00, 0x00, 0xa4, 0x23, 0xff, 0xff, 0x01, 0x00, 0x00, 0x00, 0x40, 0x01, 0x00, 0x00, 0x03, 0x00, 0x00, 0x00, 0x3f, 0x01, 0x00, 0x00, 0x07, 0x00, 0x00, 0x00, 0xff, 0xff, 0xff, 0xff, 0xea, 0xd2, 0xff, 0xff, 0x14, 0x00, 0x00, 0x00, 0x00, 0x00, 0x00, 0x0b, 0x10, 0x00, 0x00, 0x00, 0x14, 0x00, 0x00, 0x00, 0x08, 0x00, 0x00, 0x00, 0xd8, 0x23, 0xff, 0xff, 0x01, 0x00, 0x00, 0x00, 0x3f, 0x01, 0x00, 0x00, 0x02, 0x00, 0x00, 0x00, 0x36, 0x01, 0x00, 0x00, 0x3e, 0x01, 0x00, 0x00, 0x1a, 0xd3, 0xff, 0xff, 0x14, 0x00, 0x00, 0x00, 0x00, 0x00, 0x00, 0x15, 0x10, 0x00, 0x00, 0x00, 0x14, 0x00, 0x00, 0x00, 0x0a, 0x00, 0x00, 0x00, 0x08, 0x24, 0xff, 0xff, 0x01, 0x00, 0x00, 0x00, 0x3e, 0x01, 0x00, 0x00, 0x02, 0x00, 0x00, 0x00, 0x35, 0x01, 0x00, 0x00, 0x3d, 0x01, 0x00, 0x00, 0x82, 0xd2, 0xff, 0xff, 0x0c, 0x00, 0x00, 0x00, 0x10, 0x00, 0x00, 0x00, 0x0c, 0x00, 0x00, 0x00, 0x01, 0x00, 0x00, 0x00, 0x3d, 0x01, 0x00, 0x00, 0x01, 0x00, 0x00, 0x00, 0x3c, 0x01, 0x00, 0x00, 0x6a, 0xd3, 0xff, 0xff, 0x14, 0x00, 0x00, 0x00, 0x00, 0x00, 0x00, 0x0b, 0x10, 0x00, 0x00, 0x00, 0x14, 0x00, 0x00, 0x00, 0x08, 0x00, 0x00, 0x00, 0x58, 0x24, 0xff, 0xff, 0x01, 0x00, 0x00, 0x00, 0x3c, 0x01, 0x00, 0x00, 0x02, 0x00, 0x00, 0x00, 0x50, 0x00, 0x00, 0x00, 0x3b, 0x01, 0x00, 0x00, 0x9a, 0xd3, 0xff, 0xff, 0x14, 0x00, 0x00, 0x00, 0x00, 0x00, 0x00, 0x08, 0x10, 0x00, 0x00, 0x00, 0x14, 0x00, 0x00, 0x00, 0x06, 0x00, 0x00, 0x00, 0x88, 0x24, 0xff, 0xff, 0x01, 0x00, 0x00, 0x00, 0x3b, 0x01, 0x00, 0x00, 0x03, 0x00, 0x00, 0x00, 0x3a, 0x01, 0x00, 0x00, 0x06, 0x00, 0x00, 0x00, 0xff, 0xff, 0xff, 0xff, 0xce, 0xd3, 0xff, 0xff, 0x14, 0x00, 0x00, 0x00, 0x00, 0x00, 0x00, 0x15, 0x10, 0x00, 0x00, 0x00, 0x14, 0x00, 0x00, 0x00, 0x0a, 0x00, 0x00, 0x00, 0xbc, 0x24, 0xff, 0xff, 0x01, 0x00, 0x00, 0x00, 0x3a, 0x01, 0x00, 0x00, 0x02, 0x00, 0x00, 0x00, 0x39, 0x01, 0x00, 0x00, 0x30, 0x01, 0x00, 0x00, 0x36, 0xd3, 0xff, 0xff, 0x0c, 0x00, 0x00, 0x00, 0x10, 0x00, 0x00, 0x00, 0x09, 0x00, 0x00, 0x00, 0x01, 0x00, 0x00, 0x00, 0x39, 0x01, 0x00, 0x00, 0x01, 0x00, 0x00, 0x00, 0x38, 0x01, 0x00, 0x00, 0x1e, 0xd4, 0xff, 0xff, 0x14, 0x00, 0x00, 0x00, 0x00, 0x00, 0x00, 0x0b, 0x10, 0x00, 0x00, 0x00, 0x14, 0x00, 0x00, 0x00, 0x08, 0x00, 0x00, 0x00, 0x0c, 0x25, 0xff, 0xff, 0x01, 0x00, 0x00, 0x00, 0x38, 0x01, 0x00, 0x00, 0x02, 0x00, 0x00, 0x00, 0x4f, 0x00, 0x00, 0x00, 0x37, 0x01, 0x00, 0x00, 0x4e, 0xd4, 0xff, 0xff, 0x14, 0x00, 0x00, 0x00, 0x00, 0x00, 0x00, 0x20, 0x18, 0x00, 0x00, 0x00, 0x1c, 0x00, 0x00, 0x00, 0x01, 0x00, 0x00, 0x00, 0xb0, 0xdd, 0xff, 0xff, 0x01, 0x00, 0x00, 0x00, 0x01, 0x00, 0x00, 0x00, 0x01, 0x00, 0x00, 0x00, 0x37, 0x01, 0x00, 0x00, 0x04, 0x00, 0x00, 0x00, 0x31, 0x01, 0x00, 0x00, 0x0f, 0x00, 0x00, 0x00, 0x11, 0x00, 0x00, 0x00, 0x10, 0x00, 0x00, 0x00, 0x8e, 0xd4, 0xff, 0xff, 0x14, 0x00, 0x00, 0x00, 0x00, 0x00, 0x00, 0x15, 0x10, 0x00, 0x00, 0x00, 0x14, 0x00, 0x00, 0x00, 0x0a, 0x00, 0x00, 0x00, 0x7c, 0x25, 0xff, 0xff, 0x01, 0x00, 0x00, 0x00, 0x36, 0x01, 0x00, 0x00, 0x02, 0x00, 0x00, 0x00, 0x34, 0x01, 0x00, 0x00, 0x30, 0x01, 0x00, 0x00, 0xbe, 0xd4, 0xff, 0xff, 0x14, 0x00, 0x00, 0x00, 0x00, 0x00, 0x00, 0x1c, 0x10, 0x00, 0x00, 0x00, 0x14, 0x00, 0x00, 0x00, 0x0b, 0x00, 0x00, 0x00, 0xac, 0x25, 0xff, 0xff, 0x01, 0x00, 0x00, 0x00, 0x35, 0x01, 0x00, 0x00, 0x02, 0x00, 0x00, 0x00, 0x0e, 0x00, 0x00, 0x00, 0x34, 0x01, 0x00, 0x00, 0x26, 0xd4, 0xff, 0xff, 0x0c, 0x00, 0x00, 0x00, 0x10, 0x00, 0x00, 0x00, 0x09, 0x00, 0x00, 0x00, 0x01, 0x00, 0x00, 0x00, 0x34, 0x01, 0x00, 0x00, 0x01, 0x00, 0x00, 0x00, 0x33, 0x01, 0x00, 0x00, 0x0e, 0xd5, 0xff, 0xff, 0x14, 0x00, 0x00, 0x00, 0x00, 0x00, 0x00, 0x0b, 0x10, 0x00, 0x00, 0x00, 0x14, 0x00, 0x00, 0x00, 0x08, 0x00, 0x00, 0x00, 0xfc, 0x25, 0xff, 0xff, 0x01, 0x00, 0x00, 0x00, 0x33, 0x01, 0x00, 0x00, 0x02, 0x00, 0x00, 0x00, 0x4e, 0x00, 0x00, 0x00, 0x32, 0x01, 0x00, 0x00, 0x3e, 0xd5, 0xff, 0xff, 0x14, 0x00, 0x00, 0x00, 0x00, 0x00, 0x00, 0x20, 0x18, 0x00, 0x00, 0x00, 0x1c, 0x00, 0x00, 0x00, 0x01, 0x00, 0x00, 0x00, 0xa0, 0xde, 0xff, 0xff, 0x01, 0x00, 0x00, 0x00, 0x03, 0x00, 0x00, 0x00, 0x01, 0x00, 0x00, 0x00, 0x32, 0x01, 0x00, 0x00, 0x04, 0x00, 0x00, 0x00, 0x31, 0x01, 0x00, 0x00, 0x12, 0x00, 0x00, 0x00, 0x0f, 0x00, 0x00, 0x00, 0x10, 0x00, 0x00, 0x00, 0x7e, 0xd5, 0xff, 0xff, 0x14, 0x00, 0x00, 0x00, 0x00, 0x00, 0x00, 0x08, 0x10, 0x00, 0x00, 0x00, 0x14, 0x00, 0x00, 0x00, 0x06, 0x00, 0x00, 0x00, 0x6c, 0x26, 0xff, 0xff, 0x01, 0x00, 0x00, 0x00, 0x31, 0x01, 0x00, 0x00, 0x03, 0x00, 0x00, 0x00, 0x30, 0x01, 0x00, 0x00, 0x07, 0x00, 0x00, 0x00, 0xff, 0xff, 0xff, 0xff, 0xb2, 0xd5, 0xff, 0xff, 0x14, 0x00, 0x00, 0x00, 0x00, 0x00, 0x00, 0x0b, 0x10, 0x00, 0x00, 0x00, 0x14, 0x00, 0x00, 0x00, 0x08, 0x00, 0x00, 0x00, 0xa0, 0x26, 0xff, 0xff, 0x01, 0x00, 0x00, 0x00, 0x30, 0x01, 0x00, 0x00, 0x02, 0x00, 0x00, 0x00, 0x27, 0x01, 0x00, 0x00, 0x2f, 0x01, 0x00, 0x00, 0xe2, 0xd5, 0xff, 0xff, 0x14, 0x00, 0x00, 0x00, 0x00, 0x00, 0x00, 0x15, 0x10, 0x00, 0x00, 0x00, 0x14, 0x00, 0x00, 0x00, 0x0a, 0x00, 0x00, 0x00, 0xd0, 0x26, 0xff, 0xff, 0x01, 0x00, 0x00, 0x00, 0x2f, 0x01, 0x00, 0x00, 0x02, 0x00, 0x00, 0x00, 0x26, 0x01, 0x00, 0x00, 0x2e, 0x01, 0x00, 0x00, 0x4a, 0xd5, 0xff, 0xff, 0x0c, 0x00, 0x00, 0x00, 0x10, 0x00, 0x00, 0x00, 0x0c, 0x00, 0x00, 0x00, 0x01, 0x00, 0x00, 0x00, 0x2e, 0x01, 0x00, 0x00, 0x01, 0x00, 0x00, 0x00, 0x2d, 0x01, 0x00, 0x00, 0x32, 0xd6, 0xff, 0xff, 0x14, 0x00, 0x00, 0x00, 0x00, 0x00, 0x00, 0x0b, 0x10, 0x00, 0x00, 0x00, 0x14, 0x00, 0x00, 0x00, 0x08, 0x00, 0x00, 0x00, 0x20, 0x27, 0xff, 0xff, 0x01, 0x00, 0x00, 0x00, 0x2d, 0x01, 0x00, 0x00, 0x02, 0x00, 0x00, 0x00, 0x4c, 0x00, 0x00, 0x00, 0x2c, 0x01, 0x00, 0x00, 0x62, 0xd6, 0xff, 0xff, 0x14, 0x00, 0x00, 0x00, 0x00, 0x00, 0x00, 0x08, 0x10, 0x00, 0x00, 0x00, 0x14, 0x00, 0x00, 0x00, 0x06, 0x00, 0x00, 0x00, 0x50, 0x27, 0xff, 0xff, 0x01, 0x00, 0x00, 0x00, 0x2c, 0x01, 0x00, 0x00, 0x03, 0x00, 0x00, 0x00, 0x2b, 0x01, 0x00, 0x00, 0x06, 0x00, 0x00, 0x00, 0xff, 0xff, 0xff, 0xff, 0x96, 0xd6, 0xff, 0xff, 0x14, 0x00, 0x00, 0x00, 0x00, 0x00, 0x00, 0x15, 0x10, 0x00, 0x00, 0x00, 0x14, 0x00, 0x00, 0x00, 0x0a, 0x00, 0x00, 0x00, 0x84, 0x27, 0xff, 0xff, 0x01, 0x00, 0x00, 0x00, 0x2b, 0x01, 0x00, 0x00, 0x02, 0x00, 0x00, 0x00, 0x2a, 0x01, 0x00, 0x00, 0x21, 0x01, 0x00, 0x00, 0xfe, 0xd5, 0xff, 0xff, 0x0c, 0x00, 0x00, 0x00, 0x10, 0x00, 0x00, 0x00, 0x09, 0x00, 0x00, 0x00, 0x01, 0x00, 0x00, 0x00, 0x2a, 0x01, 0x00, 0x00, 0x01, 0x00, 0x00, 0x00, 0x29, 0x01, 0x00, 0x00, 0xe6, 0xd6, 0xff, 0xff, 0x14, 0x00, 0x00, 0x00, 0x00, 0x00, 0x00, 0x0b, 0x10, 0x00, 0x00, 0x00, 0x14, 0x00, 0x00, 0x00, 0x08, 0x00, 0x00, 0x00, 0xd4, 0x27, 0xff, 0xff, 0x01, 0x00, 0x00, 0x00, 0x29, 0x01, 0x00, 0x00, 0x02, 0x00, 0x00, 0x00, 0x4b, 0x00, 0x00, 0x00, 0x28, 0x01, 0x00, 0x00, 0x16, 0xd7, 0xff, 0xff, 0x14, 0x00, 0x00, 0x00, 0x00, 0x00, 0x00, 0x20, 0x18, 0x00, 0x00, 0x00, 0x1c, 0x00, 0x00, 0x00, 0x01, 0x00, 0x00, 0x00, 0x78, 0xe0, 0xff, 0xff, 0x01, 0x00, 0x00, 0x00, 0x01, 0x00, 0x00, 0x00, 0x01, 0x00, 0x00, 0x00, 0x28, 0x01, 0x00, 0x00, 0x04, 0x00, 0x00, 0x00, 0x22, 0x01, 0x00, 0x00, 0x0f, 0x00, 0x00, 0x00, 0x11, 0x00, 0x00, 0x00, 0x10, 0x00, 0x00, 0x00, 0x56, 0xd7, 0xff, 0xff, 0x14, 0x00, 0x00, 0x00, 0x00, 0x00, 0x00, 0x15, 0x10, 0x00, 0x00, 0x00, 0x14, 0x00, 0x00, 0x00, 0x0a, 0x00, 0x00, 0x00, 0x44, 0x28, 0xff, 0xff, 0x01, 0x00, 0x00, 0x00, 0x27, 0x01, 0x00, 0x00, 0x02, 0x00, 0x00, 0x00, 0x25, 0x01, 0x00, 0x00, 0x21, 0x01, 0x00, 0x00, 0x86, 0xd7, 0xff, 0xff, 0x14, 0x00, 0x00, 0x00, 0x00, 0x00, 0x00, 0x1c, 0x10, 0x00, 0x00, 0x00, 0x14, 0x00, 0x00, 0x00, 0x0b, 0x00, 0x00, 0x00, 0x74, 0x28, 0xff, 0xff, 0x01, 0x00, 0x00, 0x00, 0x26, 0x01, 0x00, 0x00, 0x02, 0x00, 0x00, 0x00, 0x0e, 0x00, 0x00, 0x00, 0x25, 0x01, 0x00, 0x00, 0xee, 0xd6, 0xff, 0xff, 0x0c, 0x00, 0x00, 0x00, 0x10, 0x00, 0x00, 0x00, 0x09, 0x00, 0x00, 0x00, 0x01, 0x00, 0x00, 0x00, 0x25, 0x01, 0x00, 0x00, 0x01, 0x00, 0x00, 0x00, 0x24, 0x01, 0x00, 0x00, 0xd6, 0xd7, 0xff, 0xff, 0x14, 0x00, 0x00, 0x00, 0x00, 0x00, 0x00, 0x0b, 0x10, 0x00, 0x00, 0x00, 0x14, 0x00, 0x00, 0x00, 0x08, 0x00, 0x00, 0x00, 0xc4, 0x28, 0xff, 0xff, 0x01, 0x00, 0x00, 0x00, 0x24, 0x01, 0x00, 0x00, 0x02, 0x00, 0x00, 0x00, 0x4a, 0x00, 0x00, 0x00, 0x23, 0x01, 0x00, 0x00, 0x06, 0xd8, 0xff, 0xff, 0x14, 0x00, 0x00, 0x00, 0x00, 0x00, 0x00, 0x20, 0x18, 0x00, 0x00, 0x00, 0x1c, 0x00, 0x00, 0x00, 0x01, 0x00, 0x00, 0x00, 0x68, 0xe1, 0xff, 0xff, 0x01, 0x00, 0x00, 0x00, 0x03, 0x00, 0x00, 0x00, 0x01, 0x00, 0x00, 0x00, 0x23, 0x01, 0x00, 0x00, 0x04, 0x00, 0x00, 0x00, 0x22, 0x01, 0x00, 0x00, 0x12, 0x00, 0x00, 0x00, 0x0f, 0x00, 0x00, 0x00, 0x10, 0x00, 0x00, 0x00, 0x46, 0xd8, 0xff, 0xff, 0x14, 0x00, 0x00, 0x00, 0x00, 0x00, 0x00, 0x08, 0x10, 0x00, 0x00, 0x00, 0x14, 0x00, 0x00, 0x00, 0x06, 0x00, 0x00, 0x00, 0x34, 0x29, 0xff, 0xff, 0x01, 0x00, 0x00, 0x00, 0x22, 0x01, 0x00, 0x00, 0x03, 0x00, 0x00, 0x00, 0x21, 0x01, 0x00, 0x00, 0x07, 0x00, 0x00, 0x00, 0xff, 0xff, 0xff, 0xff, 0x7a, 0xd8, 0xff, 0xff, 0x14, 0x00, 0x00, 0x00, 0x00, 0x00, 0x00, 0x0b, 0x10, 0x00, 0x00, 0x00, 0x14, 0x00, 0x00, 0x00, 0x08, 0x00, 0x00, 0x00, 0x68, 0x29, 0xff, 0xff, 0x01, 0x00, 0x00, 0x00, 0x21, 0x01, 0x00, 0x00, 0x02, 0x00, 0x00, 0x00, 0x18, 0x01, 0x00, 0x00, 0x20, 0x01, 0x00, 0x00, 0xaa, 0xd8, 0xff, 0xff, 0x14, 0x00, 0x00, 0x00, 